{
  "version": "1.0",
  "truncation": null,
  "padding": null,
  "added_tokens": [
    {
      "id": 0,
      "content": "<s>",
      "single_word": false,
      "lstrip": false,
      "rstrip": false,
      "normalized": false,
      "special": true
    },
    {
      "id": 1,
      "content": "<pad>",
      "single_word": false,
      "lstrip": false,
      "rstrip": false,
      "normalized": false,
      "special": true
    },
    {
      "id": 2,
      "content": "</s>",
      "single_word": false,
      "lstrip": false,
      "rstrip": false,
      "normalized": false,
      "special": true
    },
    {
      "id": 3,
      "content": "<unk>",
      "single_word": false,
      "lstrip": false,
      "rstrip": false,
      "normalized": false,
      "special": true
    },
    {
      "id": 4,
      "content": "<cls>",
      "single_word": false,
      "lstrip": false,
      "rstrip": false,
      "normalized": false,
      "special": true
    },
    {
      "id": 5,
      "content": "<sep>",
      "single_word": false,
      "lstrip": false,
      "rstrip": false,
      "normalized": false,
      "special": true
    },
    {
      "id": 6,
      "content": "<mask>",
      "single_word": false,
      "lstrip": false,
      "rstrip": false,
      "normalized": false,
      "special": true
    }
  ],
  "normalizer": {
    "type": "NFKC"
  },
  "pre_tokenizer": {
    "type": "Metaspace",
    "replacement": "▁",
    "prepend_scheme": "always",
    "split": true
  },
  "post_processor": null,
  "decoder": {
    "type": "Metaspace",
    "replacement": "▁",
    "prepend_scheme": "always",
    "split": true
  },
  "model": {
    "type": "BPE",
    "dropout": null,
    "unk_token": "<unk>",
    "continuing_subword_prefix": null,
    "end_of_word_suffix": null,
    "fuse_unk": false,
    "byte_fallback": false,
    "ignore_merges": false,
    "vocab": {
      "<s>": 0,
      "<pad>": 1,
      "</s>": 2,
      "<unk>": 3,
      "<cls>": 4,
      "<sep>": 5,
      "<mask>": 6,
      "\t": 7,
      "\n": 8,
      "!": 9,
      "\"": 10,
      "#": 11,
      "$": 12,
      "%": 13,
      "&": 14,
      "'": 15,
      "(": 16,
      ")": 17,
      "*": 18,
      "+": 19,
      ",": 20,
      "-": 21,
      ".": 22,
      "/": 23,
      "0": 24,
      "1": 25,
      "2": 26,
      "3": 27,
      "4": 28,
      "6": 29,
      ":": 30,
      ";": 31,
      "<": 32,
      "=": 33,
      ">": 34,
      "?": 35,
      "@": 36,
      "C": 37,
      "M": 38,
      "T": 39,
      "[": 40,
      "\\": 41,
      "]": 42,
      "^": 43,
      "_": 44,
      "`": 45,
      "a": 46,
      "c": 47,
      "e": 48,
      "i": 49,
      "o": 50,
      "{": 51,
      "|": 52,
      "}": 53,
      "~": 54,
      "": 55,
      "": 56,
      "": 57,
      "": 58,
      "": 59,
      "": 60,
      "": 61,
      "": 62,
      "": 63,
      "": 64,
      "": 65,
      "": 66,
      "": 67,
      "": 68,
      "": 69,
      "": 70,
      "": 71,
      "": 72,
      "": 73,
      "¢": 74,
      "£": 75,
      "¤": 76,
      "¥": 77,
      "¦": 78,
      "§": 79,
      "©": 80,
      "«": 81,
      "¬": 82,
      "­": 83,
      "®": 84,
      "°": 85,
      "±": 86,
      "¶": 87,
      "·": 88,
      "»": 89,
      "¿": 90,
      "À": 91,
      "Á": 92,
      "Â": 93,
      "Ã": 94,
      "Å": 95,
      "Æ": 96,
      "Ç": 97,
      "È": 98,
      "É": 99,
      "Ë": 100,
      "Ì": 101,
      "Í": 102,
      "Î": 103,
      "Ï": 104,
      "Ð": 105,
      "Ñ": 106,
      "Ò": 107,
      "Ó": 108,
      "Ô": 109,
      "Õ": 110,
      "Ö": 111,
      "×": 112,
      "Ø": 113,
      "Ù": 114,
      "Ú": 115,
      "Û": 116,
      "Ü": 117,
      "Ý": 118,
      "Þ": 119,
      "ß": 120,
      "à": 121,
      "á": 122,
      "â": 123,
      "ã": 124,
      "ä": 125,
      "å": 126,
      "æ": 127,
      "ç": 128,
      "è": 129,
      "é": 130,
      "ê": 131,
      "ë": 132,
      "ì": 133,
      "í": 134,
      "î": 135,
      "ï": 136,
      "ð": 137,
      "ñ": 138,
      "ò": 139,
      "ó": 140,
      "ô": 141,
      "õ": 142,
      "ö": 143,
      "÷": 144,
      "ø": 145,
      "ù": 146,
      "ú": 147,
      "û": 148,
      "ü": 149,
      "ý": 150,
      "þ": 151,
      "ÿ": 152,
      "ā": 153,
      "ğ": 154,
      "ı": 155,
      "Ł": 156,
      "ł": 157,
      "ō": 158,
      "Œ": 159,
      "œ": 160,
      "Ś": 161,
      "ś": 162,
      "ş": 163,
      "Š": 164,
      "š": 165,
      "Ÿ": 166,
      "ż": 167,
      "ƒ": 168,
      "ǀ": 169,
      "ǃ": 170,
      "ǎ": 171,
      "ǫ": 172,
      "ɔ": 173,
      "ɪ": 174,
      "ʀ": 175,
      "ʊ": 176,
      "ʌ": 177,
      "ʜ": 178,
      "ʹ": 179,
      "ʺ": 180,
      "ʻ": 181,
      "ʼ": 182,
      "ʽ": 183,
      "ʾ": 184,
      "ʿ": 185,
      "˂": 186,
      "˃": 187,
      "ˆ": 188,
      "ˇ": 189,
      "ˈ": 190,
      "ˊ": 191,
      "ː": 192,
      "˗": 193,
      "ˮ": 194,
      "́": 195,
      "̃": 196,
      "̄": 197,
      "̆": 198,
      "̈": 199,
      "̉": 200,
      "̊": 201,
      "̋": 202,
      "̎": 203,
      "̏": 204,
      "̒": 205,
      "̓": 206,
      "̔": 207,
      "̕": 208,
      "̛": 209,
      "̧": 210,
      "̨": 211,
      "̭": 212,
      "̯": 213,
      "̵": 214,
      "̶": 215,
      "̷": 216,
      "̸": 217,
      "͵": 218,
      "Σ": 219,
      "α": 220,
      "β": 221,
      "μ": 222,
      "ο": 223,
      "π": 224,
      "χ": 225,
      "Ե": 226,
      "ՙ": 227,
      "՚": 228,
      "՛": 229,
      "ֈ": 230,
      "߁": 231,
      "߮": 232,
      "ࡆ": 233,
      "ࡕ": 234,
      "ࡣ": 235,
      "ࡤ": 236,
      "ࡦ": 237,
      "࡮": 238,
      "ࢉ": 239,
      "ࢍ": 240,
      "ँ": 241,
      "ं": 242,
      "ः": 243,
      "अ": 244,
      "आ": 245,
      "इ": 246,
      "ई": 247,
      "उ": 248,
      "ऊ": 249,
      "ऋ": 250,
      "ऌ": 251,
      "ऍ": 252,
      "ऎ": 253,
      "ए": 254,
      "ऐ": 255,
      "ऑ": 256,
      "ऒ": 257,
      "ओ": 258,
      "औ": 259,
      "क": 260,
      "ख": 261,
      "ग": 262,
      "घ": 263,
      "ङ": 264,
      "च": 265,
      "छ": 266,
      "ज": 267,
      "झ": 268,
      "ञ": 269,
      "ट": 270,
      "ठ": 271,
      "ड": 272,
      "ढ": 273,
      "ण": 274,
      "त": 275,
      "थ": 276,
      "द": 277,
      "ध": 278,
      "न": 279,
      "ऩ": 280,
      "प": 281,
      "फ": 282,
      "ब": 283,
      "भ": 284,
      "म": 285,
      "य": 286,
      "र": 287,
      "ऱ": 288,
      "ल": 289,
      "ळ": 290,
      "ऴ": 291,
      "व": 292,
      "श": 293,
      "ष": 294,
      "स": 295,
      "ह": 296,
      "ऻ": 297,
      "़": 298,
      "ऽ": 299,
      "ा": 300,
      "ि": 301,
      "ी": 302,
      "ु": 303,
      "ू": 304,
      "ृ": 305,
      "ॄ": 306,
      "ॅ": 307,
      "ॆ": 308,
      "े": 309,
      "ै": 310,
      "ॉ": 311,
      "ॊ": 312,
      "ो": 313,
      "ौ": 314,
      "्": 315,
      "ॏ": 316,
      "ॐ": 317,
      "॑": 318,
      "॒": 319,
      "॓": 320,
      "॔": 321,
      "ॠ": 322,
      "।": 323,
      "॥": 324,
      "०": 325,
      "१": 326,
      "२": 327,
      "३": 328,
      "४": 329,
      "५": 330,
      "६": 331,
      "७": 332,
      "८": 333,
      "९": 334,
      "॰": 335,
      "ॱ": 336,
      "ॲ": 337,
      "ॽ": 338,
      "ਂ": 339,
      "ਅ": 340,
      "ਆ": 341,
      "ਏ": 342,
      "ਓ": 343,
      "ਕ": 344,
      "ਖ": 345,
      "ਗ": 346,
      "ਘ": 347,
      "ਚ": 348,
      "ਜ": 349,
      "ਟ": 350,
      "ਤ": 351,
      "ਦ": 352,
      "ਧ": 353,
      "ਨ": 354,
      "ਪ": 355,
      "ਬ": 356,
      "ਭ": 357,
      "ਮ": 358,
      "ਰ": 359,
      "ਲ": 360,
      "ਵ": 361,
      "ਸ": 362,
      "ਹ": 363,
      "਼": 364,
      "ਾ": 365,
      "ਿ": 366,
      "ੀ": 367,
      "ੁ": 368,
      "ੂ": 369,
      "ੇ": 370,
      "ੜ": 371,
      "ੰ": 372,
      "ੱ": 373,
      "ત": 374,
      "ન": 375,
      "પ": 376,
      "સ": 377,
      "ા": 378,
      "િ": 379,
      "ુ": 380,
      "ે": 381,
      "ૐ": 382,
      "૨": 383,
      "૪": 384,
      "୵": 385,
      "᠁": 386,
      "ᴇ": 387,
      "ᴘ": 388,
      "ᴜ": 389,
      "​": 390,
      "‌": 391,
      "‍": 392,
      "‎": 393,
      "‏": 394,
      "‐": 395,
      "‒": 396,
      "–": 397,
      "—": 398,
      "―": 399,
      "‘": 400,
      "’": 401,
      "‚": 402,
      "‛": 403,
      "“": 404,
      "”": 405,
      "„": 406,
      "‟": 407,
      "†": 408,
      "‡": 409,
      "•": 410,
      " ": 411,
      "‪": 412,
      "‬": 413,
      "‭": 414,
      "‰": 415,
      "′": 416,
      "‵": 417,
      "‹": 418,
      "›": 419,
      "⁃": 420,
      "⁄": 421,
      "⁓": 422,
      "⁠": 423,
      "⁣": 424,
      "⁦": 425,
      "⁩": 426,
      "€": 427,
      "₹": 428,
      "⃣": 429,
      "℧": 430,
      "→": 431,
      "↕": 432,
      "↪": 433,
      "⇌": 434,
      "⇒": 435,
      "⇛": 436,
      "⇨": 437,
      "∆": 438,
      "∏": 439,
      "−": 440,
      "∕": 441,
      "∙": 442,
      "√": 443,
      "∞": 444,
      "∫": 445,
      "∶": 446,
      "≈": 447,
      "≠": 448,
      "≤": 449,
      "≥": 450,
      "⋅": 451,
      "⋮": 452,
      "⋲": 453,
      "⌄": 454,
      "⌘": 455,
      "⎯": 456,
      "⎼": 457,
      "␀": 458,
      "▁": 459,
      "󠁢": 460,
      "󠁥": 461,
      "󠁧": 462,
      "󠁬": 463,
      "󠁮": 464,
      "󠁳": 465,
      "󠁷": 466,
      "󠁿": 467,
      "󠄀": 468,
      "󠄍": 469,
      "󠄔": 470,
      "󠄪": 471,
      "󠅀": 472,
      "󠇃": 473,
      "󠇈": 474,
      "􄑻": 475,
      "▁स": 476,
      "को": 477,
      "का": 478,
      "मा": 479,
      "्र": 480,
      "▁प": 481,
      "र्": 482,
      "न्": 483,
      "▁ग": 484,
      "ले": 485,
      "ने": 486,
      "▁र": 487,
      "▁।": 488,
      "्य": 489,
      "▁ब": 490,
      "ला": 491,
      "▁भ": 492,
      "▁अ": 493,
      "▁व": 494,
      "ार": 495,
      "▁छ": 496,
      "▁ह": 497,
      "▁क": 498,
      "▁न": 499,
      "▁प्र": 500,
      "▁म": 501,
      "ाल": 502,
      "▁द": 503,
      "▁ज": 504,
      "▁आ": 505,
      "▁त": 506,
      "स्": 507,
      "ान": 508,
      "▁उ": 509,
      "क्": 510,
      "ता": 511,
      "ति": 512,
      "एको": 513,
      "ना": 514,
      "▁का": 515,
      "▁गर": 516,
      "त्र": 517,
      "यो": 518,
      "▁वि": 519,
      "ेको": 520,
      "नि": 521,
      "म्": 522,
      "▁गर्": 523,
      "लाई": 524,
      "वा": 525,
      "री": 526,
      "नु": 527,
      "िक": 528,
      "ित": 529,
      "था": 530,
      "▁नि": 531,
      "या": 532,
      "▁च": 533,
      "▁हु": 534,
      "▁ने": 535,
      "्या": 536,
      "▁ख": 537,
      "▁रा": 538,
      "हर": 539,
      "▁ला": 540,
      "▁ल": 541,
      "पाल": 542,
      "▁श": 543,
      "▁ए": 544,
      "रा": 545,
      "▁मा": 546,
      "क्ष": 547,
      "न्द": 548,
      "▁सा": 549,
      "▁थ": 550,
      "ेश": 551,
      "▁य": 552,
      "त्": 553,
      "ल्": 554,
      "▁स्": 555,
      "बा": 556,
      "▁दि": 557,
      "▁सं": 558,
      "ष्": 559,
      "ुर": 560,
      "▁पनि": 561,
      "▁सम": 562,
      "ाउ": 563,
      "ेर": 564,
      "ेका": 565,
      "हि": 566,
      "एका": 567,
      "न्त्र": 568,
      "▁लाग": 569,
      "▁उन": 570,
      "▁नेपाल": 571,
      "▁थि": 572,
      "र्य": 573,
      "▁१": 574,
      "हा": 575,
      "िका": 576,
      "▁भएको": 577,
      "दै": 578,
      "▁२": 579,
      "दा": 580,
      "बाट": 581,
      "▁फ": 582,
      "▁छन्": 583,
      "पा": 584,
      "रि": 585,
      "▁हो": 586,
      "भा": 587,
      "▁पा": 588,
      "क्र": 589,
      "द्": 590,
      "▁रह": 591,
      "▁निर्": 592,
      "▁भने": 593,
      "रण": 594,
      "स्त": 595,
      "ष्ट": 596,
      "ीय": 597,
      "िएको": 598,
      "▁गरेको": 599,
      "कार": 600,
      "ेल": 601,
      "देश": 602,
      "▁कार्य": 603,
      "छि": 604,
      "वि": 605,
      "रो": 606,
      "▁लागि": 607,
      "▁घ": 608,
      "▁के": 609,
      "हरु": 610,
      "▁पु": 611,
      "ेख": 612,
      "▁त्य": 613,
      "र्ष": 614,
      "ही": 615,
      "▁बता": 616,
      "ध्य": 617,
      "नी": 618,
      "सा": 619,
      "गा": 620,
      "▁ट": 621,
      "हरू": 622,
      "ारी": 623,
      "▁सम्": 624,
      "धान": 625,
      "▁।\n": 626,
      "ली": 627,
      "लो": 628,
      "▁गर्ने": 629,
      "▁प्रति": 630,
      "▁‘": 631,
      "▁को": 632,
      "न्त": 633,
      "▁सु": 634,
      "▁एक": 635,
      "▁गर्न": 636,
      "▁तथा": 637,
      "न्छ": 638,
      "्च": 639,
      "▁बा": 640,
      "भि": 641,
      "ौं": 642,
      "गर": 643,
      "▁सर": 644,
      "बार": 645,
      "स्था": 646,
      "न्त्री": 647,
      "ँग": 648,
      "ालय": 649,
      "मी": 650,
      "▁ड": 651,
      "▁जना": 652,
      "पछि": 653,
      "▁कु": 654,
      "▁थियो": 655,
      "▁व्य": 656,
      "्न": 657,
      "▁यस": 658,
      "म्म": 659,
      "धि": 660,
      "▁क्": 661,
      "▁यो": 662,
      "ण्": 663,
      "▁अनु": 664,
      "▁छ।": 665,
      "टी": 666,
      "▁उप": 667,
      "ङ्": 668,
      "▁वर्ष": 669,
      "की": 670,
      "पर्": 671,
      "▁हुने": 672,
      "टा": 673,
      "ठमा": 674,
      "▁ध": 675,
      "ेस": 676,
      "िय": 677,
      "रह": 678,
      "▁हा": 679,
      "▁दु": 680,
      "▁सह": 681,
      "▁राज": 682,
      "स्थ": 683,
      "▁काठमा": 684,
      "▁बढ": 685,
      "▁रु": 686,
      "सँग": 687,
      "▁काठमाड": 688,
      "▁आफ": 689,
      "ेखि": 690,
      "ष्ट्र": 691,
      "योग": 692,
      "मन्त्री": 693,
      "न्द्र": 694,
      "▁उनले": 695,
      "▁सरकार": 696,
      "ण्ड": 697,
      "ेट": 698,
      "क्त": 699,
      "जार": 700,
      "क्रम": 701,
      "ग्र": 702,
      "▁सि": 703,
      "▁मु": 704,
      "र्थ": 705,
      "िल्": 706,
      "▁क्ष": 707,
      "उन": 708,
      "▁रहेको": 709,
      "्रो": 710,
      "कारी": 711,
      "सार": 712,
      "नमा": 713,
      "ाइ": 714,
      "र्व": 715,
      "प्र": 716,
      "मु": 717,
      "ेत": 718,
      "िन": 719,
      "वस्था": 720,
      "्व": 721,
      "▁बि": 722,
      "▁स्थ": 723,
      "सी": 724,
      "▁भए": 725,
      "ाउँ": 726,
      "▁थिए": 727,
      "▁इ": 728,
      "दी": 729,
      "प्": 730,
      "ानी": 731,
      "▁ना": 732,
      "सि": 733,
      "न्न": 734,
      "▁गरि": 735,
      "द्ध": 736,
      "याँ": 737,
      "▁३": 738,
      "▁बै": 739,
      "कि": 740,
      "नुपर्": 741,
      "▁काठमाडौं": 742,
      "▁२०": 743,
      "▁प्रह": 744,
      "न्य": 745,
      "▁विश": 746,
      "पमा": 747,
      "▁गरेका": 748,
      "▁बना": 749,
      "▁५": 750,
      "पालिका": 751,
      "न्ध": 752,
      "▁नै": 753,
      "▁काम": 754,
      "द्य": 755,
      "ुरु": 756,
      "▁वा": 757,
      "▁पार्": 758,
      "ती": 759,
      "▁परि": 760,
      "ेत्र": 761,
      "▁त्यस": 762,
      "▁से": 763,
      "▁प्रहरी": 764,
      "▁ठ": 765,
      "ँदै": 766,
      "जना": 767,
      "▁हजार": 768,
      "▁भएका": 769,
      "▁लि": 770,
      "▁क्षेत्र": 771,
      "डा": 772,
      "मि": 773,
      "नको": 774,
      "▁तर": 775,
      "जा": 776,
      "▁राष्ट्र": 777,
      "▁प्रा": 778,
      "सम्म": 779,
      "एर": 780,
      "▁सो": 781,
      "▁प्रदेश": 782,
      "▁पू": 783,
      "▁गरिएको": 784,
      "▁बताए": 785,
      "▁स्थान": 786,
      "▁समा": 787,
      "ध्यक्ष": 788,
      "हाँ": 789,
      "न्दा": 790,
      "▁(": 791,
      "लि": 792,
      "हिले": 793,
      "▁भन्": 794,
      "▁जन": 795,
      "ञ्च": 796,
      "▁नेपाली": 797,
      "उने": 798,
      "▁६": 799,
      "वार": 800,
      "बै": 801,
      "क्षा": 802,
      "▁उनी": 803,
      "हु": 804,
      "▁जान": 805,
      "▁रो": 806,
      "▁मि": 807,
      "▁मह": 808,
      "्रा": 809,
      "ेद": 810,
      "धार": 811,
      "मुख": 812,
      "सक": 813,
      "चार": 814,
      "बन्ध": 815,
      "▁४": 816,
      "ृत": 817,
      "्ने": 818,
      "टर": 819,
      "रहेको": 820,
      "▁पार्टी": 821,
      "▁गर्दै": 822,
      "▁गरी": 823,
      "नुभ": 824,
      "माण": 825,
      "म्प": 826,
      "ीन": 827,
      "▁गत": 828,
      "डि": 829,
      "िल्ला": 830,
      "▁सबै": 831,
      "▁अध": 832,
      "िम": 833,
      "▁जा": 834,
      "▁ओ": 835,
      "रु": 836,
      "▁दिन": 837,
      "▁पर": 838,
      "ैन": 839,
      "ेला": 840,
      "कु": 841,
      "▁कि": 842,
      "▁जिल्ला": 843,
      "▁प्रधान": 844,
      "र्ण": 845,
      "▁बु": 846,
      "तिक": 847,
      "मान": 848,
      "भाव": 849,
      "▁गरे": 850,
      "▁जो": 851,
      "ंक": 852,
      "शा": 853,
      "ंग": 854,
      "▁दुई": 855,
      "▁पुग": 856,
      "▁उत्": 857,
      "▁अर्": 858,
      "▁महि": 859,
      "▁मात्र": 860,
      "बी": 861,
      "क्ति": 862,
      "▁केन्द्र": 863,
      "▁राख": 864,
      "स्ता": 865,
      "िति": 866,
      "▁समय": 867,
      "जी": 868,
      "नुपर्ने": 869,
      "टक": 870,
      "गत": 871,
      "ौँ": 872,
      "▁छैन": 873,
      "▁अध्यक्ष": 874,
      "पी": 875,
      "्रम": 876,
      "▁दा": 877,
      "▁पहि": 878,
      "▁कारण": 879,
      "▁था": 880,
      "▁सय": 881,
      "रमा": 882,
      "डी": 883,
      "▁नगर": 884,
      "देखि": 885,
      "▁अहिले": 886,
      "ँदा": 887,
      "र्फ": 888,
      "▁स्वा": 889,
      "▁लाख": 890,
      "▁कार्यालय": 891,
      "▁हुन्": 892,
      "चि": 893,
      "▁प्रधानमन्त्री": 894,
      "▁अव": 895,
      "माले": 896,
      "▁आज": 897,
      "▁पर्": 898,
      "▁महा": 899,
      "▁देश": 900,
      "▁जानकारी": 901,
      "▁निर्माण": 902,
      "वाच": 903,
      "छन्": 904,
      "ाउने": 905,
      "ँच": 906,
      "ारत": 907,
      "स्य": 908,
      "घि": 909,
      "▁सञ्च": 910,
      "▁खो": 911,
      "लेख": 912,
      "▁व्यवस्था": 913,
      "▁भन्ने": 914,
      "निक": 915,
      "▁सद": 916,
      "पुर": 917,
      "ोक": 918,
      "▁स्व": 919,
      "्यु": 920,
      "▁देखि": 921,
      "ोल": 922,
      "▁झ": 923,
      "▁आफ्न": 924,
      "र्ता": 925,
      "▁आयो": 926,
      "▁हुन": 927,
      "म्ब": 928,
      "सो": 929,
      "यु": 930,
      "▁कार्यक्रम": 931,
      "त्व": 932,
      "ठक": 933,
      "फल": 934,
      "▁अनुसार": 935,
      "▁भारत": 936,
      "▁खेल": 937,
      "कास": 938,
      "▁७": 939,
      "▁प्रमुख": 940,
      "ुट": 941,
      "▁निर्वाच": 942,
      "र्म": 943,
      "ाउन": 944,
      "ाली": 945,
      "▁छन्।": 946,
      "▁गाउँ": 947,
      "ष्ठ": 948,
      "ेन्": 949,
      "हित": 950,
      "वादी": 951,
      "▁चा": 952,
      "भाग": 953,
      "▁हि": 954,
      "सद": 955,
      "ेक": 956,
      "▁केही": 957,
      "ोर": 958,
      "▁मन्त्र": 959,
      "जन": 960,
      "▁लग": 961,
      "िया": 962,
      "▁बैठक": 963,
      "▁भइ": 964,
      "न्तर": 965,
      "▁स्थानीय": 966,
      "्ञ": 967,
      "नै": 968,
      "▁या": 969,
      "वास": 970,
      "यत": 971,
      "▁श्र": 972,
      "दान": 973,
      "ूल": 974,
      "▁सक्": 975,
      "स्प": 976,
      "▁शि": 977,
      "▁अधिका": 978,
      "▁दल": 979,
      "▁यु": 980,
      "इएको": 981,
      "▁नेता": 982,
      "▁पो": 983,
      "▁बज": 984,
      "कै": 985,
      "▁गु": 986,
      "▁मत": 987,
      "▁विकास": 988,
      "▁अवस्था": 989,
      "ग्": 990,
      "पति": 991,
      "▁रुप": 992,
      "▁विष": 993,
      "▁देख": 994,
      "भन्दा": 995,
      "▁लगा": 996,
      "▁हुन्छ": 997,
      "▁हामी": 998,
      "पू": 999,
      "▁साथ": 1000,
      "▁साउन": 1001,
      "मै": 1002,
      "स्थ्य": 1003,
      "▁रहेका": 1004,
      "ारा": 1005,
      "स्तै": 1006,
      "▁कुरा": 1007,
      "▁घर": 1008,
      "▁सदस्य": 1009,
      "▁८": 1010,
      "▁विश्व": 1011,
      "ंग्र": 1012,
      "▁सरकारले": 1013,
      "▁आफ्नो": 1014,
      "▁समिति": 1015,
      "▁कम": 1016,
      "वन": 1017,
      "▁सुरु": 1018,
      "▁तय": 1019,
      "▁शा": 1020,
      "दुर": 1021,
      "▁भा": 1022,
      "सम": 1023,
      "▁आव": 1024,
      "करण": 1025,
      "▁विषय": 1026,
      "▁राष्ट्रिय": 1027,
      "र्च": 1028,
      "स्तो": 1029,
      "ब्": 1030,
      "दि": 1031,
      "यन": 1032,
      "▁बताउ": 1033,
      "▁सङ्": 1034,
      "▁नयाँ": 1035,
      "▁अभि": 1036,
      "णा": 1037,
      "ंग्रेस": 1038,
      "थि": 1039,
      "▁बो": 1040,
      "ताल": 1041,
      "▁स्वास्थ्य": 1042,
      "▁सेवा": 1043,
      "▁सभा": 1044,
      "नुभयो": 1045,
      "▁तीन": 1046,
      "▁गरेर": 1047,
      "▁आइ": 1048,
      "▁खा": 1049,
      "▁विद्य": 1050,
      "▁कुनै": 1051,
      "▁कांग्रेस": 1052,
      "लमा": 1053,
      "▁सञ्चाल": 1054,
      "▁९": 1055,
      "प्त": 1056,
      "▁समेत": 1057,
      "यर": 1058,
      "ेरै": 1059,
      "चना": 1060,
      "▁रू": 1061,
      "न्दै": 1062,
      "▁ल्या": 1063,
      "▁राजनी": 1064,
      "्यो": 1065,
      "▁आएको": 1066,
      "क्षण": 1067,
      "सन": 1068,
      "▁मन्त्रालय": 1069,
      "हादुर": 1070,
      "राज": 1071,
      "च्च": 1072,
      "▁दिए": 1073,
      "जि": 1074,
      "▁ढ": 1075,
      "कृ": 1076,
      "टि": 1077,
      "स्या": 1078,
      "▁१०": 1079,
      "मेर": 1080,
      "▁बढी": 1081,
      "▁धेरै": 1082,
      "▁सू": 1083,
      "श्य": 1084,
      "▁नगरपालिका": 1085,
      "▁जनाएको": 1086,
      "त्य": 1087,
      "खा": 1088,
      "ताको": 1089,
      "शत": 1090,
      "▁राम": 1091,
      "इन": 1092,
      "▁पहिलो": 1093,
      "डक": 1094,
      "ट्": 1095,
      "धा": 1096,
      "णय": 1097,
      "▁चि": 1098,
      "ाना": 1099,
      "▁डा": 1100,
      "लु": 1101,
      "▁निर्णय": 1102,
      "▁ओली": 1103,
      "रोना": 1104,
      "ेव": 1105,
      "▁अस्प": 1106,
      "ुन": 1107,
      "▁समस्या": 1108,
      "ैयाँ": 1109,
      "▁अस्पताल": 1110,
      "▁नभ": 1111,
      "सहित": 1112,
      "▁कोरोना": 1113,
      "▁भने,": 1114,
      "रोड": 1115,
      "▁प्रतिशत": 1116,
      "ज्ञ": 1117,
      "▁सुर": 1118,
      "स्ट": 1119,
      "▁रुपमा": 1120,
      "▁भू": 1121,
      "भिन्न": 1122,
      "हरुले": 1123,
      "▁निय": 1124,
      "▁एमाले": 1125,
      "धन": 1126,
      "छ।": 1127,
      "▁आफू": 1128,
      "बहादुर": 1129,
      "चिव": 1130,
      "▁भन्दै": 1131,
      "मो": 1132,
      "सं": 1133,
      "टना": 1134,
      "▁सडक": 1135,
      "▁करोड": 1136,
      "▁दो": 1137,
      "▁सामा": 1138,
      "यी": 1139,
      "▁उनको": 1140,
      "▁महिला": 1141,
      "टन": 1142,
      "▁मो": 1143,
      "▁उक्त": 1144,
      "ङ्ग": 1145,
      "टो": 1146,
      "▁खु": 1147,
      "▁थियो।": 1148,
      "▁विभिन्न": 1149,
      "▁मृत": 1150,
      "र्थिक": 1151,
      "▁कम्प": 1152,
      "श्यक": 1153,
      "▁सकि": 1154,
      "▁उहाँ": 1155,
      "ीमा": 1156,
      "रको": 1157,
      "▁बैंक": 1158,
      "▁थप": 1159,
      "▁प्रव": 1160,
      "▁भि": 1161,
      "▁शु": 1162,
      "▁आर्थिक": 1163,
      "▁मुख": 1164,
      "क्रमण": 1165,
      "जिक": 1166,
      "भित्र": 1167,
      "▁गाउँपालिका": 1168,
      "ेन": 1169,
      "पाद": 1170,
      "▁गते": 1171,
      "▁बस्": 1172,
      "▁काठमाडौं,": 1173,
      "▁रुपैयाँ": 1174,
      "▁व्यव": 1175,
      "कपा": 1176,
      "तन्त्र": 1177,
      "▁आयोजना": 1178,
      "स्थित": 1179,
      "▁पार": 1180,
      "▁औ": 1181,
      "▁पछि": 1182,
      "▁कार्": 1183,
      "सु": 1184,
      "ड्": 1185,
      "▁गा": 1186,
      "सकेको": 1187,
      "ेड": 1188,
      "▁हाल": 1189,
      "सभा": 1190,
      "▁हो।": 1191,
      "▁बस": 1192,
      "धिक": 1193,
      "त्त": 1194,
      "पन": 1195,
      "गरिक": 1196,
      "▁गठ": 1197,
      "हरूले": 1198,
      "वाद": 1199,
      "र्ग": 1200,
      "ख्या": 1201,
      "▁शर्": 1202,
      "बीच": 1203,
      "▁कम्पनी": 1204,
      "▁समाज": 1205,
      "▁नेकपा": 1206,
      "अघि": 1207,
      "▁नागरिक": 1208,
      "▁व्यक्ति": 1209,
      "▁माग": 1210,
      "न्या": 1211,
      "▁पूर्व": 1212,
      "▁हुँदै": 1213,
      "रहेका": 1214,
      "▁सम्बन्ध": 1215,
      "ैले": 1216,
      "ोग": 1217,
      "श्च": 1218,
      "▁संघ": 1219,
      "▁उल्": 1220,
      "ञ्": 1221,
      "हान": 1222,
      "▁गर्दा": 1223,
      "▁क्षेत्रमा": 1224,
      "▁कृ": 1225,
      "सको": 1226,
      "▁दिने": 1227,
      "▁रि": 1228,
      "शी": 1229,
      "▁सक": 1230,
      "▁पत्र": 1231,
      "न्ति": 1232,
      "काश": 1233,
      "▁क्रम": 1234,
      "▁पाँच": 1235,
      "▁दिएको": 1236,
      "▁“": 1237,
      "निधि": 1238,
      "हरुको": 1239,
      "ोली": 1240,
      "▁सहयोग": 1241,
      "तृ": 1242,
      "▁बाँ": 1243,
      "▁आवश्यक": 1244,
      "▁अन्य": 1245,
      "▁मन": 1246,
      "▁मुख्य": 1247,
      "सँगै": 1248,
      "▁प्रयोग": 1249,
      "▁सार्व": 1250,
      "जु": 1251,
      "युक्त": 1252,
      "▁जि": 1253,
      "काल": 1254,
      "नाइ": 1255,
      "र्क": 1256,
      "▁निर्देश": 1257,
      "सले": 1258,
      "▁निर्वाचन": 1259,
      "▁डि": 1260,
      "▁मृत्यु": 1261,
      "सर": 1262,
      "▁प्रभाव": 1263,
      "ेष्ठ": 1264,
      "▁रूपमा": 1265,
      "पूर्ण": 1266,
      "▁अप": 1267,
      "▁पोख": 1268,
      "कम": 1269,
      "▁जित": 1270,
      "तामा": 1271,
      "▁बाल": 1272,
      "▁अमेर": 1273,
      "जनिक": 1274,
      "▁सां": 1275,
      "एपछि": 1276,
      "र्श": 1277,
      "▁व्या": 1278,
      "▁चु": 1279,
      "हरूको": 1280,
      "▁उत्पाद": 1281,
      "▁सार्वजनिक": 1282,
      "र्त": 1283,
      "▁आधार": 1284,
      "▁पर्य": 1285,
      "▁मूल": 1286,
      "▁तह": 1287,
      "▁प्रश": 1288,
      "क्षक": 1289,
      "▁बे": 1290,
      "▁नाम": 1291,
      "▁वडा": 1292,
      "▁त्यो": 1293,
      "लेको": 1294,
      "▁महिना": 1295,
      "भर": 1296,
      "▁बने": 1297,
      "ूह": 1298,
      "न्ड": 1299,
      "उँ": 1300,
      "समा": 1301,
      "▁संस्था": 1302,
      "▁अधिकारी": 1303,
      "रुद्ध": 1304,
      "बारे": 1305,
      "ेन्द्र": 1306,
      "▁पुन": 1307,
      "▁नेतृ": 1308,
      "▁मन्त्री": 1309,
      "त्म": 1310,
      "पत्र": 1311,
      "इन्": 1312,
      "▁छल": 1313,
      "▁२०७": 1314,
      "▁ती": 1315,
      "▁छलफल": 1316,
      "ओवादी": 1317,
      "▁परी": 1318,
      "▁ति": 1319,
      "▁भयो": 1320,
      "द्या": 1321,
      "समेत": 1322,
      "्वास": 1323,
      "ेष": 1324,
      "यक": 1325,
      "▁।’": 1326,
      "ुत": 1327,
      "▁अब": 1328,
      "▁नेतृत्व": 1329,
      "▁एउ": 1330,
      "्रि": 1331,
      "▁छो": 1332,
      "गम": 1333,
      "▁उल्लेख": 1334,
      "चा": 1335,
      "मार": 1336,
      "▁चौ": 1337,
      "▁श्रेष्ठ": 1338,
      "▁पठ": 1339,
      "▁प्रतिनिधि": 1340,
      "▁छा": 1341,
      "▁चार": 1342,
      "▁जी": 1343,
      "▁ठू": 1344,
      "न्व": 1345,
      "▁वै": 1346,
      "▁अन्त": 1347,
      "ध्ये": 1348,
      "▁भइरहेको": 1349,
      "▁जारी": 1350,
      "▁सम्प": 1351,
      "▁छ,": 1352,
      "्यान": 1353,
      "▁भेट": 1354,
      "▁ता": 1355,
      "अनु": 1356,
      "छा": 1357,
      "र्थी": 1358,
      "झा": 1359,
      "▁बेला": 1360,
      "सक्": 1361,
      "ोष": 1362,
      "▁न्य": 1363,
      "▁पक्र": 1364,
      "▁टोली": 1365,
      "गायत": 1366,
      "गरी": 1367,
      "▁पक्ष": 1368,
      "ित्": 1369,
      "▁तर,": 1370,
      "फा": 1371,
      "ेपछि": 1372,
      "▁मे": 1373,
      "▁मात्रै": 1374,
      "▁स्था": 1375,
      "▁पक्राउ": 1376,
      "▁इन्": 1377,
      "माथि": 1378,
      "▁राजनीतिक": 1379,
      "▁थिए।": 1380,
      "वै": 1381,
      "▁निका": 1382,
      "▁काठमाडौँ": 1383,
      "▁वटा": 1384,
      "स्रो": 1385,
      "▁उपचार": 1386,
      "▁सूचना": 1387,
      "▁उम्म": 1388,
      "▁व्यवसा": 1389,
      "▁अद": 1390,
      "▁सांसद": 1391,
      "▁गर्नु": 1392,
      "▁थापा": 1393,
      "▁योजना": 1394,
      "▁संसद": 1395,
      "▁सर्व": 1396,
      "वी": 1397,
      "सन्": 1398,
      "▁एव": 1399,
      "टमा": 1400,
      "▁अन्तर": 1401,
      "▁समूह": 1402,
      "घा": 1403,
      "▁कस": 1404,
      "पु": 1405,
      "▁क्रममा": 1406,
      "पि": 1407,
      "▁अघि": 1408,
      "▁सञ्चालन": 1409,
      "▁लेख": 1410,
      "तमा": 1411,
      "▁उद्य": 1412,
      "▁शर्मा": 1413,
      "िर": 1414,
      "▁१५": 1415,
      "▁प्रहरीले": 1416,
      "बु": 1417,
      "मति": 1418,
      "▁प्राप्त": 1419,
      "साद": 1420,
      "▁बताएका": 1421,
      "▁महान": 1422,
      "▁साम": 1423,
      "▁प्रकाश": 1424,
      "▁आरो": 1425,
      "तर्फ": 1426,
      "▁आयोग": 1427,
      "त्ता": 1428,
      "▁पटक": 1429,
      "▁अदाल": 1430,
      "▁उम्मेद": 1431,
      "▁हे": 1432,
      "▁बजार": 1433,
      "▁भनेर": 1434,
      "▁घटना": 1435,
      "हरुलाई": 1436,
      "▁अर्थ": 1437,
      "▁बजेट": 1438,
      "▁११": 1439,
      "▁सुरक्षा": 1440,
      "र्ड": 1441,
      "क्रिया": 1442,
      "्री": 1443,
      "रोध": 1444,
      "क्ता": 1445,
      "विधान": 1446,
      "▁हाम": 1447,
      "▁हुँदा": 1448,
      "वारी": 1449,
      "▁विषयमा": 1450,
      "▁आएका": 1451,
      "ञ्ज": 1452,
      "▁नेपालमा": 1453,
      "हाल": 1454,
      "▁कर्म": 1455,
      "▁पानी": 1456,
      "▁मानि": 1457,
      "सन्धान": 1458,
      "ंह": 1459,
      "▁विक": 1460,
      "▁पर्ने": 1461,
      "अनुसार": 1462,
      "▁गो": 1463,
      "र्न": 1464,
      "ुवा": 1465,
      "▁विद्या": 1466,
      "प्रति": 1467,
      "▁भनि": 1468,
      "द्धि": 1469,
      "▁अनुसन्धान": 1470,
      "▁जोड": 1471,
      "▁सहभाग": 1472,
      "नुभएको": 1473,
      "▁१२": 1474,
      "हो": 1475,
      "▁लगानी": 1476,
      "▁सचिव": 1477,
      "चारी": 1478,
      "▁नी": 1479,
      "लको": 1480,
      "▁?": 1481,
      "पना": 1482,
      "▁ले": 1483,
      "वेश": 1484,
      "▁पद": 1485,
      "▁पौ": 1486,
      "विधि": 1487,
      "▁संविधान": 1488,
      "डेल": 1489,
      "▁माओवादी": 1490,
      "नुपर्छ": 1491,
      "▁अगा": 1492,
      "▁भनाइ": 1493,
      "▁विदेश": 1494,
      "▁सन्": 1495,
      "पो": 1496,
      "▁बताए।": 1497,
      "ल्लो": 1498,
      "▁मुलु": 1499,
      "▁एउटा": 1500,
      "▁लोक": 1501,
      "लगायत": 1502,
      "शु": 1503,
      "▁गर्नुपर्ने": 1504,
      "▁सम्झ": 1505,
      "▁तयारी": 1506,
      "▁खे": 1507,
      "से": 1508,
      "▁नहु": 1509,
      "▁नेपालको": 1510,
      "म्भ": 1511,
      "वरण": 1512,
      "न,": 1513,
      "▁अवस्थामा": 1514,
      "वेद": 1515,
      "▁पुगेको": 1516,
      "त्या": 1517,
      "पक्ष": 1518,
      "▁१९": 1519,
      "▁कर्मचारी": 1520,
      "ीर": 1521,
      "राम": 1522,
      "नका": 1523,
      "▁निक": 1524,
      "▁दोस्रो": 1525,
      "▁राष्ट्रपति": 1526,
      "▁उपा": 1527,
      "▁मुलुक": 1528,
      "▁विद्यालय": 1529,
      "▁लक्ष": 1530,
      "▁सम्म": 1531,
      "▁मौ": 1532,
      "तिमा": 1533,
      "प्रसाद": 1534,
      "▁बनाउन": 1535,
      "▁अर्ब": 1536,
      "▁क्र": 1537,
      "ृह": 1538,
      "▁जनता": 1539,
      "▁तत्": 1540,
      "ट्ट": 1541,
      "ेउ": 1542,
      "कल": 1543,
      "र्फत": 1544,
      "▁परेको": 1545,
      "▁सामाजिक": 1546,
      "▁करि": 1547,
      "▁जे": 1548,
      "▁विभाग": 1549,
      "▁ऐ": 1550,
      "▁लागेको": 1551,
      "▁उद्योग": 1552,
      "▁मूल्य": 1553,
      "▁विशेष": 1554,
      "▁परिवार": 1555,
      "▁विश्वास": 1556,
      "ग्रह": 1557,
      "▁संर": 1558,
      "▁सक्ने": 1559,
      "▁मान": 1560,
      "स्क": 1561,
      "▁ठाउँ": 1562,
      "▁केन्द्रीय": 1563,
      "▁एवं": 1564,
      "▁सात": 1565,
      "र्ने": 1566,
      "त्रा": 1567,
      "▁जाने": 1568,
      "▁भएकाले": 1569,
      "▁कृष": 1570,
      "ष्ट्रिय": 1571,
      "हार": 1572,
      "ोट": 1573,
      "न्।": 1574,
      "▁गोल": 1575,
      "▁न्या": 1576,
      "ुल": 1577,
      "जग": 1578,
      "▁साथै": 1579,
      "▁बनाउने": 1580,
      "▁गएको": 1581,
      "▁नीति": 1582,
      "▁केपी": 1583,
      "दाय": 1584,
      "▁बन्द": 1585,
      "्छ": 1586,
      "▁नग": 1587,
      "तको": 1588,
      "पर": 1589,
      "▁दश": 1590,
      "तले": 1591,
      "हरूलाई": 1592,
      "ालिका": 1593,
      "▁रकम": 1594,
      "▁ठूलो": 1595,
      "▁विज्ञ": 1596,
      "▁भएपछि": 1597,
      "धी": 1598,
      "▁उत्पादन": 1599,
      "▁५०": 1600,
      "▁दिएका": 1601,
      "▁यहाँ": 1602,
      "▁सफल": 1603,
      "▁अनि": 1604,
      "र्ट": 1605,
      "ोधन": 1606,
      "र्गत": 1607,
      "ृद्धि": 1608,
      "▁अगाडि": 1609,
      "▁उपल": 1610,
      "▁उठ": 1611,
      "ष्ण": 1612,
      "▁भएर": 1613,
      "▁शिक्षा": 1614,
      "▁भन्दा": 1615,
      "्दै": 1616,
      "चण्ड": 1617,
      "स्ताव": 1618,
      "▁नियन्त्र": 1619,
      "▁उच्च": 1620,
      "▁पौडेल": 1621,
      "▁आउने": 1622,
      "▁देखिएको": 1623,
      "▁पै": 1624,
      "मध्ये": 1625,
      "वाह": 1626,
      "बर": 1627,
      "▁समु": 1628,
      "▁घोष": 1629,
      "▁खर्च": 1630,
      "नाव": 1631,
      "ाएको": 1632,
      "▁फो": 1633,
      "▁गठबन्ध": 1634,
      "द्दा": 1635,
      "नामा": 1636,
      "▁तयार": 1637,
      "▁होइन": 1638,
      "▁हाम्रो": 1639,
      "क्रमित": 1640,
      "▁उहाँले": 1641,
      "▁खेलमा": 1642,
      "▁बिहान": 1643,
      "▁विद्यार्थी": 1644,
      "▁स्थानमा": 1645,
      "कुमार": 1646,
      "बि": 1647,
      "–१": 1648,
      "▁अर्को": 1649,
      ",’": 1650,
      "▁उपलब्": 1651,
      "▁भु": 1652,
      "त्मक": 1653,
      "ल्या": 1654,
      "न्स": 1655,
      "ारे": 1656,
      "यात": 1657,
      "ष्टि": 1658,
      "▁संक्रमण": 1659,
      "रू": 1660,
      "▁पुर": 1661,
      "▁नेपालले": 1662,
      "▁गरिने": 1663,
      "कर्ता": 1664,
      "▁सम्पन्न": 1665,
      "▁बस्ने": 1666,
      "▁मुद्दा": 1667,
      "यान": 1668,
      "व्य": 1669,
      "▁बुझ": 1670,
      "▁कार": 1671,
      "▁नियन्त्रण": 1672,
      "काली": 1673,
      "रत": 1674,
      "यम": 1675,
      "▁पछिल्लो": 1676,
      "▁प्रस्ताव": 1677,
      "▁सोम": 1678,
      "▁राज्य": 1679,
      "▁देउ": 1680,
      "म्बर": 1681,
      "▁अफ": 1682,
      "▁व्याप": 1683,
      "▁फि": 1684,
      "▁यस्तै": 1685,
      "▁छि": 1686,
      "▁आइत": 1687,
      "▁राम्रो": 1688,
      "▁कार्यक्रममा": 1689,
      "▁उम्मेदवार": 1690,
      "के": 1691,
      "ीको": 1692,
      "▁\n": 1693,
      "▁कानु": 1694,
      "▁२५": 1695,
      "▁त्यस्तै": 1696,
      "बल": 1697,
      "कृति": 1698,
      "▁अध्य": 1699,
      "▁बाहि": 1700,
      "▁व्यवस्थापन": 1701,
      "▁क्या": 1702,
      "▁समयमा": 1703,
      "दो": 1704,
      "▁सरकारको": 1705,
      "▁घोषणा": 1706,
      "क्स": 1707,
      "ल्ने": 1708,
      "▁यस्तो": 1709,
      "दू": 1710,
      "दर": 1711,
      "दर्श": 1712,
      "▁पाइ": 1713,
      "उँदै": 1714,
      "नले": 1715,
      "ारि": 1716,
      "▁अझ": 1717,
      "▁सी": 1718,
      "लामा": 1719,
      "▁'": 1720,
      "▁लगायत": 1721,
      "▁चीन": 1722,
      "गामी": 1723,
      "▁१४": 1724,
      "▁गुरु": 1725,
      "▁महानगर": 1726,
      "▁प्रशा": 1727,
      "▁पी": 1728,
      "लाइ": 1729,
      "▁३०": 1730,
      "▁१३": 1731,
      "..": 1732,
      "▁करिब": 1733,
      "▁दुर्": 1734,
      "▁चाल": 1735,
      "मिक": 1736,
      "▁शुक्र": 1737,
      "▁परेका": 1738,
      "▁दाहाल": 1739,
      "▁कति": 1740,
      "र्मी": 1741,
      "्राष्ट्रिय": 1742,
      "स्त्र": 1743,
      "तम": 1744,
      "▁गृह": 1745,
      "ते": 1746,
      "▁उद्": 1747,
      "र्जा": 1748,
      "▁एस": 1749,
      "धिका": 1750,
      "र्वा": 1751,
      "▁हुनु": 1752,
      "▁ट्र": 1753,
      "▁कार्या": 1754,
      "▁पोखरा": 1755,
      "पनि": 1756,
      "▁अन": 1757,
      "कर्ष": 1758,
      "षा": 1759,
      "कमा": 1760,
      "▁लु": 1761,
      "▁विवाद": 1762,
      "▁ब्या": 1763,
      "गी": 1764,
      "त्ति": 1765,
      "ढी": 1766,
      "▁हुनेछ": 1767,
      "▁डा.": 1768,
      "लले": 1769,
      "▁सम्झौ": 1770,
      "पटक": 1771,
      "▁अन्तर्राष्ट्रिय": 1772,
      "सम्": 1773,
      "▁श्री": 1774,
      "विरुद्ध": 1775,
      "▁किन": 1776,
      "न्,": 1777,
      "▁हामीले": 1778,
      "▁साल": 1779,
      "▁जनाको": 1780,
      "लब": 1781,
      "▁फिल्": 1782,
      "स्व": 1783,
      "▁आइतबार": 1784,
      "ममा": 1785,
      "▁कृषि": 1786,
      "▁भाइ": 1787,
      "▁पूर्ण": 1788,
      "वर्त": 1789,
      "▁यसअघि": 1790,
      "▁अमेरिका": 1791,
      "▁फर": 1792,
      "▁खोज": 1793,
      "▁प्रक्रिया": 1794,
      "▁बी": 1795,
      "▁समाजवादी": 1796,
      "▁संख्या": 1797,
      "ंगल": 1798,
      "▁विज": 1799,
      "▁भारतीय": 1800,
      "▁रे": 1801,
      "▁म्या": 1802,
      "राई": 1803,
      "▁बैठकमा": 1804,
      "▁१६": 1805,
      "▁प्रतियोग": 1806,
      "▁आगामी": 1807,
      "कृत": 1808,
      "ेन्ट": 1809,
      "▁कार्यान्व": 1810,
      "▁वर्षीय": 1811,
      "▁बुध": 1812,
      "▁खेला": 1813,
      "▁सम्भाव": 1814,
      "▁आग्रह": 1815,
      "न्ने": 1816,
      "▁वर्षको": 1817,
      "▁दर्ता": 1818,
      "▁फा": 1819,
      "ङको": 1820,
      "सान": 1821,
      "▁गौ": 1822,
      "▁अध्ययन": 1823,
      "▁सहभागी": 1824,
      "ल्ला": 1825,
      "▁बताउनुभयो": 1826,
      "▁युवा": 1827,
      "िता": 1828,
      "▁गण": 1829,
      "▁सरकारी": 1830,
      "िकी": 1831,
      "मित": 1832,
      "▁सिंह": 1833,
      "परि": 1834,
      "▁सहमति": 1835,
      "▁बिक": 1836,
      "▁भण्ड": 1837,
      "▁परीक्षण": 1838,
      "▁नभएको": 1839,
      "ंश": 1840,
      "▁प्रचण्ड": 1841,
      "▁अधिक": 1842,
      "▁मुख्यमन्त्री": 1843,
      "ग्गा": 1844,
      "▁बढेको": 1845,
      "न्दोल": 1846,
      "▁न्यू": 1847,
      "▁आधारमा": 1848,
      "▁दुवै": 1849,
      "▁निर": 1850,
      "▁यही": 1851,
      "▁सोमबार": 1852,
      "द्र": 1853,
      "ङ्क": 1854,
      "▁याद": 1855,
      "▁मन्त्रालयले": 1856,
      "▁उपलब्ध": 1857,
      "छन्।": 1858,
      "ेरो": 1859,
      "▁डे": 1860,
      "▁बाँकी": 1861,
      "लग": 1862,
      "ग्री": 1863,
      "टै": 1864,
      "▁सबैभन्दा": 1865,
      "▁योग": 1866,
      "▁पुर्": 1867,
      "▁पर्यटक": 1868,
      "▁नव": 1869,
      "▁भित्र": 1870,
      "डान": 1871,
      "▁दर": 1872,
      "▁खेलाडी": 1873,
      "▁झा": 1874,
      "ैं": 1875,
      "ैनिक": 1876,
      "▁चाह": 1877,
      "▁ध्य": 1878,
      "२०": 1879,
      "सका": 1880,
      "▁व्यवसायी": 1881,
      "▁यी": 1882,
      "▁भट्ट": 1883,
      "मारी": 1884,
      "▁ओलीले": 1885,
      "यण": 1886,
      "टल": 1887,
      "ारमा": 1888,
      "एन": 1889,
      "▁देउवा": 1890,
      "सचिव": 1891,
      "धिवेश": 1892,
      "श्चिम": 1893,
      "▁फै": 1894,
      "थ्यो": 1895,
      "▁दाबी": 1896,
      "▁१८": 1897,
      "▁पैसा": 1898,
      "धारण": 1899,
      "▁अस": 1900,
      "▁विस्त": 1901,
      "▁सन्द": 1902,
      "▁गरिरहेको": 1903,
      "▁यसको": 1904,
      "▁त्यहाँ": 1905,
      "ेरि": 1906,
      "▁स्प": 1907,
      "▁रोजग": 1908,
      "▁फाइ": 1909,
      "▁बहु": 1910,
      "▁बनेको": 1911,
      "▁रहने": 1912,
      "▁उनलाई": 1913,
      "▁लिएर": 1914,
      "▁शुक्रबार": 1915,
      "▁संस्": 1916,
      "▁परिवर्त": 1917,
      "एस": 1918,
      "सकेका": 1919,
      "▁जग्गा": 1920,
      "लेका": 1921,
      "▁विमान": 1922,
      "▁यादव": 1923,
      "▁यसै": 1924,
      "तरण": 1925,
      "’,": 1926,
      "स्तु": 1927,
      "▁अन्ति": 1928,
      "▁जल": 1929,
      "ेकी": 1930,
      "▁हर": 1931,
      "▁अभियान": 1932,
      "तर": 1933,
      "▁सम्झौता": 1934,
      "▁आन्दोल": 1935,
      "वेदन": 1936,
      "▁सश": 1937,
      "ेक्": 1938,
      "सिया": 1939,
      "▁लामो": 1940,
      "▁असार": 1941,
      "▁२४": 1942,
      "▁बिही": 1943,
      "▁छुट": 1944,
      "न्छ।": 1945,
      "ारायण": 1946,
      "▁निर्देशन": 1947,
      "▁नं": 1948,
      "तो": 1949,
      "▁सुन": 1950,
      "▁मंगल": 1951,
      "कालीन": 1952,
      "▁भाग": 1953,
      "लव": 1954,
      "पाई": 1955,
      "▁भो": 1956,
      "▁खड्": 1957,
      "▁संक्रमित": 1958,
      "रीक्षक": 1959,
      "क्षि": 1960,
      "मको": 1961,
      "िकेट": 1962,
      "▁बुधबार": 1963,
      "▁पूरा": 1964,
      "जक": 1965,
      "मिका": 1966,
      "▁पत्रकार": 1967,
      "▁शनि": 1968,
      "ताका": 1969,
      "र्ति": 1970,
      "▁धा": 1971,
      "ीकरण": 1972,
      "दैन": 1973,
      "धिकरण": 1974,
      "पक": 1975,
      "रामी": 1976,
      "▁भ्रम": 1977,
      "▁सकिने": 1978,
      "▁प्रत्य": 1979,
      "▁किसान": 1980,
      "▁पदा": 1981,
      "▁चुनाव": 1982,
      "▁हुन्।": 1983,
      "▁मध": 1984,
      "▁निकाय": 1985,
      "▁अमेरिकी": 1986,
      "▁पढ": 1987,
      "गो": 1988,
      "जो": 1989,
      "▁सभापति": 1990,
      "▁दी": 1991,
      "▁प्रदर्श": 1992,
      "▁लिन": 1993,
      "▁चल": 1994,
      "▁सामान्य": 1995,
      "▁भण्डारी": 1996,
      "▁जिम्म": 1997,
      "▁प्राधिकरण": 1998,
      "▁अन्तिम": 1999,
      "▁सवारी": 2000,
      "लेर": 2001,
      "▁सुझा": 2002,
      "रिद": 2003,
      "▁उनका": 2004,
      "▁प्रविधि": 2005,
      "▁ज्ञ": 2006,
      "▁कारो": 2007,
      "▁बताउँ": 2008,
      "▁आउ": 2009,
      "▁प्रदान": 2010,
      "▁सोही": 2011,
      "पानी": 2012,
      "▁१७": 2013,
      "ालले": 2014,
      "▁गी": 2015,
      "घटना": 2016,
      "▁जोख": 2017,
      "▁स्रो": 2018,
      "▁त्रि": 2019,
      "पको": 2020,
      "सक्ने": 2021,
      "▁पर्यटन": 2022,
      "भव": 2023,
      "क्क": 2024,
      "्ना": 2025,
      "षद्": 2026,
      "▁जु": 2027,
      "▁सम्भावना": 2028,
      "▁बजे": 2029,
      "▁पि": 2030,
      "▁खरिद": 2031,
      "▁ग्रा": 2032,
      "जित": 2033,
      "▁नेपालका": 2034,
      "तिर": 2035,
      "▁चरण": 2036,
      "▁लिएको": 2037,
      "▁भाइर": 2038,
      "▁दू": 2039,
      "▁पाउने": 2040,
      "सिक": 2041,
      "▁फर्": 2042,
      "सम्बन्ध": 2043,
      "वासी": 2044,
      "ैँ": 2045,
      "▁बिहीबार": 2046,
      "बद्ध": 2047,
      "क्षिण": 2048,
      "ल्क": 2049,
      "गठ": 2050,
      "▁जीवन": 2051,
      "▁तेस": 2052,
      "चित्र": 2053,
      "कर्मी": 2054,
      "▁मै": 2055,
      "▁आरोप": 2056,
      "▁सहज": 2057,
      "ुत्": 2058,
      "▁वितरण": 2059,
      "ण्डकी": 2060,
      "▁बिक्री": 2061,
      "▁चला": 2062,
      "भिड": 2063,
      "▁छन": 2064,
      "▁प्रश्न": 2065,
      "▁पराज": 2066,
      "▁दुर्घटना": 2067,
      "▁गुरुङ": 2068,
      "विद्य": 2069,
      "▁देव": 2070,
      "▁सेना": 2071,
      "▁निकै": 2072,
      "▁कै": 2073,
      "▁स्वी": 2074,
      "▁तेस्रो": 2075,
      "हरुमा": 2076,
      "▁स्थापना": 2077,
      "▁कायम": 2078,
      "▁२७": 2079,
      "▁निर्देशक": 2080,
      "▁नम्बर": 2081,
      "धे": 2082,
      "▁नहुने": 2083,
      "ल्प": 2084,
      "▁संसदीय": 2085,
      "▁सुझाव": 2086,
      "▁ऋ": 2087,
      "▁बिरामी": 2088,
      "खु": 2089,
      "निर्": 2090,
      "▁रन": 2091,
      "बाही": 2092,
      "▁घाइ": 2093,
      "तावरण": 2094,
      "▁अधिकार": 2095,
      "▁खड्का": 2096,
      "त्री": 2097,
      "▁महत्व": 2098,
      "ेले": 2099,
      "▁त्यही": 2100,
      "▁घट": 2101,
      "▁ताल": 2102,
      "▁तथ": 2103,
      "▁भनेको": 2104,
      "▁प्रण": 2105,
      "▁प्रवक्ता": 2106,
      "▁स्ट": 2107,
      "राब": 2108,
      "▁गर्छ": 2109,
      "न्ट": 2110,
      "▁भूमिका": 2111,
      "▁जुन": 2112,
      "▁रोग": 2113,
      "▁होला": 2114,
      "▁वातावरण": 2115,
      "▁सर्वो": 2116,
      "ध्यम": 2117,
      "▁न्याय": 2118,
      "▁कारोबार": 2119,
      "▁लक्ष्य": 2120,
      "चाल": 2121,
      "▁जोखिम": 2122,
      "▁।”": 2123,
      "▁मंगलबार": 2124,
      "▁कुल": 2125,
      "र्जन": 2126,
      "▁अधिकृत": 2127,
      "▁चित": 2128,
      "सम्बन्धी": 2129,
      "▁जेठ": 2130,
      "▁सङ्घ": 2131,
      "ल्न": 2132,
      "दार": 2133,
      "▁त्यसको": 2134,
      "▁प्रया": 2135,
      "▁वर्षा": 2136,
      "हरूमा": 2137,
      "न्तरिक": 2138,
      "र्स": 2139,
      "▁पुनः": 2140,
      "श्व": 2141,
      "कको": 2142,
      "कार्य": 2143,
      "▁सुधार": 2144,
      "▁तपाई": 2145,
      "▁खाने": 2146,
      "▁स्वतन्त्र": 2147,
      "▁गि": 2148,
      "▁तत्काल": 2149,
      "▁टि": 2150,
      "वर": 2151,
      "▁प्रणाली": 2152,
      "ाउनु": 2153,
      "ुरुष": 2154,
      "▁बाटो": 2155,
      "▁आन्तरिक": 2156,
      "▁गरा": 2157,
      "▁बारे": 2158,
      "तार": 2159,
      "▁प्रवेश": 2160,
      "ियन": 2161,
      "▁अझै": 2162,
      "▁विस्तार": 2163,
      "▁आठ": 2164,
      "▁शनिबार": 2165,
      "▁मैले": 2166,
      "्दा": 2167,
      "▁भ्रमण": 2168,
      "▁विकेट": 2169,
      "▁अवधि": 2170,
      "मार्ग": 2171,
      "▁सम्ब": 2172,
      "स्थल": 2173,
      "▁क्षति": 2174,
      "▁जिल्लामा": 2175,
      "भू": 2176,
      "▁२१": 2177,
      "ेज": 2178,
      "▁सच": 2179,
      "▁फुट": 2180,
      "▁आफ्ना": 2181,
      "▁घाइते": 2182,
      "▁२०१": 2183,
      "साइ": 2184,
      "रीको": 2185,
      "र्चा": 2186,
      "▁कर्ण": 2187,
      "विधा": 2188,
      "▁खोप": 2189,
      "▁समुदाय": 2190,
      "▁बाहिर": 2191,
      "▁व्यक्त": 2192,
      "▁छान": 2193,
      "▁४०": 2194,
      "देव": 2195,
      "▁निरन्तर": 2196,
      "▁अग्र": 2197,
      "▁सामग्री": 2198,
      "नाथ": 2199,
      "▁बैठकले": 2200,
      "▁सशस्त्र": 2201,
      "लाको": 2202,
      "र्ज": 2203,
      "आर": 2204,
      "▁च्या": 2205,
      "▁संघीय": 2206,
      "अन्त": 2207,
      "डित": 2208,
      "▁अस्पतालमा": 2209,
      "▁लिने": 2210,
      "▁मानव": 2211,
      "▁त्यसपछि": 2212,
      "▁गरेपछि": 2213,
      "तिहा": 2214,
      "▁प्रतिनिधिसभा": 2215,
      "धेयक": 2216,
      "▁यसले": 2217,
      "▁–": 2218,
      "▁टु": 2219,
      "ाल्": 2220,
      "▁पुरुष": 2221,
      "▁गति": 2222,
      "▁शक्ति": 2223,
      "▁गुना": 2224,
      "▁घण्": 2225,
      "▁यात्रा": 2226,
      "▁मानिस": 2227,
      "▁टा": 2228,
      "▁राई": 2229,
      "▁बनाएको": 2230,
      "▁घि": 2231,
      "▁संयुक्त": 2232,
      "▁जस": 2233,
      "▁सर्वोच्च": 2234,
      "▁विधेयक": 2235,
      "▁कार्यान्वयन": 2236,
      "▁राजनीति": 2237,
      "▁मिने": 2238,
      "▁सम्मेल": 2239,
      "दिन": 2240,
      "िएका": 2241,
      "डियो": 2242,
      "हेक": 2243,
      "▁ठाउँमा": 2244,
      "डिया": 2245,
      "▁कमि": 2246,
      "▁पार्टीको": 2247,
      "त्ती": 2248,
      "▁मेरो": 2249,
      "▁सीमा": 2250,
      "अन्तर्गत": 2251,
      "्युनि": 2252,
      "ँड": 2253,
      "संघ": 2254,
      "यो।": 2255,
      "▁बसेको": 2256,
      "▁क्रिकेट": 2257,
      "ेवारी": 2258,
      "▁अंक": 2259,
      "▁हरेक": 2260,
      "▁विरोध": 2261,
      "▁छु": 2262,
      "▁वन": 2263,
      "पण": 2264,
      "मार्फत": 2265,
      "▁कारबाही": 2266,
      "▁कोभिड": 2267,
      "▁ध्यान": 2268,
      "▁साँ": 2269,
      "यार": 2270,
      "▁कांग्रेसका": 2271,
      "सद्": 2272,
      "▁प्रशासन": 2273,
      "स्तान": 2274,
      "▁प्रदेशका": 2275,
      "▁कर": 2276,
      "▁नदी": 2277,
      "ानो": 2278,
      "हुन्छ": 2279,
      "रेल": 2280,
      "▁पार्टीका": 2281,
      "▁२२": 2282,
      "धीश": 2283,
      "▁वृद्धि": 2284,
      "▁छौं": 2285,
      "दछ": 2286,
      "द्धा": 2287,
      "▁कार्की": 2288,
      "▁व्यापार": 2289,
      "▁शेर": 2290,
      "▁त्यसैले": 2291,
      "▁समाधान": 2292,
      "लित": 2293,
      "▁बलि": 2294,
      "▁जिम्मेवारी": 2295,
      "▁गठन": 2296,
      "▁निजी": 2297,
      "िनी": 2298,
      "शाख": 2299,
      "▁पुष्": 2300,
      "▁संरक्षण": 2301,
      "▁क्षम": 2302,
      "▁दक्षिण": 2303,
      "▁गुनासो": 2304,
      "▁श्रम": 2305,
      "शील": 2306,
      "स्पर्": 2307,
      "आई": 2308,
      "सरमा": 2309,
      "हल": 2310,
      "▁शी": 2311,
      "▁रोक": 2312,
      "▁विद्युत": 2313,
      "▁छैन।": 2314,
      "वे": 2315,
      "▁गरिरहेका": 2316,
      "थे": 2317,
      "▁धन": 2318,
      "म्मा": 2319,
      "ेती": 2320,
      "▁आश": 2321,
      "स्थिति": 2322,
      "▁महानगरपालिका": 2323,
      "▁व्यवसाय": 2324,
      "▁समाचार": 2325,
      "णि": 2326,
      "याधीश": 2327,
      "▁तर्फ": 2328,
      "▁गठबन्धन": 2329,
      "▁पूर्वा": 2330,
      "म्भीर": 2331,
      "▁परिवर्तन": 2332,
      "▁मना": 2333,
      "राष्ट्र": 2334,
      "▁प्रकाशित": 2335,
      "▁गण्डकी": 2336,
      "▁छैनन्": 2337,
      "ेसम्म": 2338,
      "विधिक": 2339,
      "▁वरि": 2340,
      "▁गम्भीर": 2341,
      "▁प्रतिस्पर्": 2342,
      "▁तुल": 2343,
      "▁फिल्म": 2344,
      "▁देखिन्छ": 2345,
      "▁घण्टा": 2346,
      "▁कम्युनि": 2347,
      "▁भट्टराई": 2348,
      "▁दैनिक": 2349,
      "▁आँ": 2350,
      "▁जन्": 2351,
      "▁भई": 2352,
      "हन": 2353,
      "▁ढु": 2354,
      "ंका": 2355,
      "ेता": 2356,
      "ष्टा": 2357,
      "▁क्लब": 2358,
      "▁उपाध्यक्ष": 2359,
      "एकी": 2360,
      "देश्य": 2361,
      "▁सुविधा": 2362,
      "स्ती": 2363,
      "ुरो": 2364,
      "▁सञ्चार": 2365,
      "▁नजिक": 2366,
      "▁राति": 2367,
      "▁अरु": 2368,
      "रीमा": 2369,
      "▁त्यसै": 2370,
      "▁भन्छ": 2371,
      "ल,": 2372,
      "टको": 2373,
      "▁थिएन": 2374,
      "▁आई": 2375,
      "रीले": 2376,
      "▁सत्ता": 2377,
      "योजन": 2378,
      "▁सक्छ": 2379,
      "▁कसरी": 2380,
      "वान": 2381,
      "▁पशु": 2382,
      "▁गुमा": 2383,
      "▁रहे": 2384,
      "▁प्राविधिक": 2385,
      "▁चौध": 2386,
      "▁निर्वाचनमा": 2387,
      "▁बारेमा": 2388,
      "बिन": 2389,
      "▁टिम": 2390,
      "▁थाल": 2391,
      "क्षित": 2392,
      "▁पराजित": 2393,
      "▁श्रेष्ठले": 2394,
      "▁बजारमा": 2395,
      "स्तुत": 2396,
      "एम": 2397,
      "मत": 2398,
      "▁किलो": 2399,
      "▁मन्द": 2400,
      "▁ग्र": 2401,
      "कलन": 2402,
      "▁कार्यकारी": 2403,
      "▁सम्बोधन": 2404,
      "▁कर्णाली": 2405,
      "▁अहिलेसम्म": 2406,
      "▁बालब": 2407,
      "▁क्षेत्रको": 2408,
      "▁प्रस्तुत": 2409,
      "▁मतदान": 2410,
      "▁शुरु": 2411,
      "▁चै": 2412,
      "ङमा": 2413,
      "▁सहकारी": 2414,
      "▁हिमा": 2415,
      "ढा": 2416,
      "▁कानुन": 2417,
      "▁निर्वाचित": 2418,
      "▁सम्बन्धित": 2419,
      "▁पर्व": 2420,
      "▁बैंकले": 2421,
      "▁कम्पनीले": 2422,
      "▁पुष्टि": 2423,
      "योजना": 2424,
      "▁थालेको": 2425,
      "▁जस्तो": 2426,
      "‍या": 2427,
      "▁प्राथ": 2428,
      "बेला": 2429,
      "▁कोइ": 2430,
      "▁संसद्": 2431,
      "▁तो": 2432,
      "▁प्रयास": 2433,
      "▁शे": 2434,
      "द्वार": 2435,
      "▁आदेश": 2436,
      "▁हत्या": 2437,
      "▁गाडी": 2438,
      "▁सन्त": 2439,
      "▁स्पष्ट": 2440,
      "▁अल": 2441,
      "▁कला": 2442,
      "▁गराउने": 2443,
      "▁विदेशी": 2444,
      "▁गरे।": 2445,
      "▁२८": 2446,
      "धु": 2447,
      "ैर": 2448,
      "्नु": 2449,
      "मती": 2450,
      "▁भवन": 2451,
      "▁विगत": 2452,
      "▁पाण्ड": 2453,
      "▁फेरि": 2454,
      "▁प्राथमिक": 2455,
      "▁कार्यालयमा": 2456,
      "▁अपरा": 2457,
      "▁अभाव": 2458,
      "▁पुष्प": 2459,
      "▁प्": 2460,
      "चित": 2461,
      "ज्य": 2462,
      "▁विद्युत्": 2463,
      "▁लामि": 2464,
      "िकित्": 2465,
      "▁बल": 2466,
      "▁इन्टर": 2467,
      "▁मनो": 2468,
      "▁बद": 2469,
      "▁हस्ता": 2470,
      "▁फु": 2471,
      "▁आफ्नै": 2472,
      "फाइ": 2473,
      "▁समितिको": 2474,
      "छाने": 2475,
      "▁सोच": 2476,
      "▁उपत्य": 2477,
      "▁पूर्वाधार": 2478,
      "▁डो": 2479,
      "▁सकिन्छ": 2480,
      "री,": 2481,
      "▁केसी": 2482,
      "▁उपम": 2483,
      "▁२३": 2484,
      "▁देशभर": 2485,
      "शन": 2486,
      "▁संश": 2487,
      "▁लिग": 2488,
      "▁लामिछाने": 2489,
      "रिया": 2490,
      "न्त्रिक": 2491,
      "▁बालबालिका": 2492,
      "▁वर्षमा": 2493,
      "▁चिनि": 2494,
      "ाउँदै": 2495,
      "ची": 2496,
      "▁विप": 2497,
      "▁प्रमाण": 2498,
      "▁समितिले": 2499,
      "▁सिफ": 2500,
      "▁०": 2501,
      "▁हुँदैन": 2502,
      "▁देशको": 2503,
      "▁प्रशि": 2504,
      "▁दिए।": 2505,
      "▁रोजगारी": 2506,
      "▁राजधान": 2507,
      "▁ऋण": 2508,
      "▁नारायण": 2509,
      "डो": 2510,
      "▁शान्ति": 2511,
      "▁हात": 2512,
      "▁बच": 2513,
      "▁चिकित्": 2514,
      "▁भ्र": 2515,
      "▁भर्": 2516,
      "▁मध्य": 2517,
      "क्टर": 2518,
      "▁पुग्ने": 2519,
      "▁बनाएर": 2520,
      "▁घा": 2521,
      "▁औष": 2522,
      "▁भक्त": 2523,
      "प्रधान": 2524,
      "ठा": 2525,
      "▁ऊ": 2526,
      "▁फिर्ता": 2527,
      "▁सर्": 2528,
      "▁घरमा": 2529,
      "▁अति": 2530,
      "▁२६": 2531,
      "▁बराब": 2532,
      "▁छोरा": 2533,
      "▁थापाले": 2534,
      "चार्य": 2535,
      "▁उपत्यका": 2536,
      "ौती": 2537,
      "▁छौँ": 2538,
      "वल": 2539,
      "▁भइसकेको": 2540,
      "▁पहिले": 2541,
      "▁भौ": 2542,
      "▁उद्देश्य": 2543,
      "▁शै": 2544,
      "▁मलाई": 2545,
      "▁लाग्ने": 2546,
      "▁आयोगले": 2547,
      "▁एन": 2548,
      "▁तोक": 2549,
      "पश्चिम": 2550,
      "गमन": 2551,
      "▁नाममा": 2552,
      "▁एम": 2553,
      "▁ज्यान": 2554,
      "▁बताइएको": 2555,
      "▁पौडेलले": 2556,
      "▁सकेको": 2557,
      "कृतिक": 2558,
      "▁मिल्": 2559,
      "िल्लो": 2560,
      "तका": 2561,
      "▁दृ": 2562,
      "ेलि": 2563,
      "कले": 2564,
      "▁सिफारि": 2565,
      "▁समर्थ": 2566,
      "तान्त्रिक": 2567,
      "▁कृष्ण": 2568,
      "▁इज": 2569,
      "नाले": 2570,
      "▁जनताको": 2571,
      "▁चलचित्र": 2572,
      "▁भी": 2573,
      "चन": 2574,
      "देशिक": 2575,
      "▁समन्व": 2576,
      "ंगा": 2577,
      "▁वैशाख": 2578,
      "▁पुगेका": 2579,
      "धिवेशन": 2580,
      "▁प्रभावित": 2581,
      "▁खान": 2582,
      "▁अवसरमा": 2583,
      "▁खुला": 2584,
      "▁आम": 2585,
      "▁बाध्य": 2586,
      "▁कमिटी": 2587,
      "उनु": 2588,
      "▁प्रदेशमा": 2589,
      "▁संगठ": 2590,
      "पय": 2591,
      "▁पीडित": 2592,
      "▁संरचना": 2593,
      "▁आफूले": 2594,
      "न्ज": 2595,
      "▁पोखरेल": 2596,
      "म्बिनी": 2597,
      "▁दलको": 2598,
      "पान": 2599,
      "क्रिय": 2600,
      "▁आत्म": 2601,
      "▁हालसम्म": 2602,
      "▁मान्छ": 2603,
      "▁वित्त": 2604,
      "▁राख्ने": 2605,
      "ाइएको": 2606,
      "▁थाहा": 2607,
      "▁आउन": 2608,
      "▁दिइ": 2609,
      "लग्न": 2610,
      "योजक": 2611,
      "▁प्रतियोगि": 2612,
      "▁मन्त्रि": 2613,
      "▁हामीलाई": 2614,
      "▁‘अ": 2615,
      "▁हुनुपर्ने": 2616,
      "▁पहिरो": 2617,
      "▁प्रे": 2618,
      "▁छानबिन": 2619,
      "लाले": 2620,
      "▁प्रदर्शन": 2621,
      "विक": 2622,
      "▁टी": 2623,
      "▁पाल": 2624,
      "▁समन्वय": 2625,
      "▁काठमाडौँ,": 2626,
      "▁फर्क": 2627,
      "▁तथ्या": 2628,
      "चान": 2629,
      "▁ई": 2630,
      "▁दिव": 2631,
      "▁कोइरा": 2632,
      "▁गराउन": 2633,
      "पित": 2634,
      "▁सञ्ज": 2635,
      "▁हो,": 2636,
      "▁अवसर": 2637,
      "▁प्रतिपक्ष": 2638,
      "ए।": 2639,
      "▁संक": 2640,
      "▁प्रदेशसभा": 2641,
      "▁बर्": 2642,
      "ल्दै": 2643,
      "▁परीक्षा": 2644,
      "▁निष्": 2645,
      "▁लुम्बिनी": 2646,
      "▁शाखा": 2647,
      "भो": 2648,
      "▁उडान": 2649,
      "▁विश्वक": 2650,
      "▁यति": 2651,
      "▁अन्त्य": 2652,
      "▁६०": 2653,
      "काम": 2654,
      "▁कतिपय": 2655,
      "▁मन्त्रिपरि": 2656,
      "▁सञ्चालनमा": 2657,
      "▁पक्षमा": 2658,
      "▁इला": 2659,
      "च्छ": 2660,
      "▁अन्तर्गत": 2661,
      "▁लै": 2662,
      "▁३१": 2663,
      "ेलु": 2664,
      "▁नौ": 2665,
      "सँगको": 2666,
      "▁पाएको": 2667,
      "श्चित": 2668,
      "▁भन्नुभयो": 2669,
      "▁महामारी": 2670,
      "सू": 2671,
      "▁साह": 2672,
      "▁सुनि": 2673,
      "▁वरिष्ठ": 2674,
      "ष्टाचार": 2675,
      "▁नसकेको": 2676,
      "▁हरा": 2677,
      "▁अर्था": 2678,
      "▁राखेर": 2679,
      "▁चाहि": 2680,
      "▁कार्यालयले": 2681,
      "मिर": 2682,
      "दु": 2683,
      "▁कोष": 2684,
      "▁उद्ध": 2685,
      "▁फाग": 2686,
      "▁सम्मान": 2687,
      "▁विश्वासको": 2688,
      "▁२०२": 2689,
      "लाइन": 2690,
      "टेड": 2691,
      "▁:": 2692,
      "▁गीत": 2693,
      "▁संस्कृति": 2694,
      "▁प्या": 2695,
      "न्तरण": 2696,
      "तियार": 2697,
      "▁मिटर": 2698,
      "▁आमा": 2699,
      "▁सहित": 2700,
      "ेदेखि": 2701,
      "ता,": 2702,
      "▁थु": 2703,
      "▁संलग्न": 2704,
      "▁याता": 2705,
      "▁प्रतिस्पर्धा": 2706,
      "▁कोही": 2707,
      "८०": 2708,
      "▁भनिएको": 2709,
      "चमा": 2710,
      "गमती": 2711,
      "्वी": 2712,
      "▁फरक": 2713,
      "▁थिइन्": 2714,
      "▁२९": 2715,
      "फो": 2716,
      "▁हात्ती": 2717,
      "▁आक्रमण": 2718,
      "सीसी": 2719,
      "लर": 2720,
      "▁यस्ता": 2721,
      "▁वीर": 2722,
      "▁टोलीले": 2723,
      "▁लगायतका": 2724,
      "▁सचेत": 2725,
      "▁शीर्ष": 2726,
      "▁३५": 2727,
      "▁दिउँ": 2728,
      "ङ,": 2729,
      "▁गौतम": 2730,
      "▁दिनमा": 2731,
      "ीले": 2732,
      "▁तत्कालीन": 2733,
      "▁विवरण": 2734,
      "▁टे": 2735,
      "▁दर्श": 2736,
      "वाफ": 2737,
      "जर": 2738,
      "▁तामा": 2739,
      "▁मिडिया": 2740,
      "्वा": 2741,
      "धानिक": 2742,
      "▁निम्": 2743,
      "ग्रा": 2744,
      "▁विचार": 2745,
      "▁भाषा": 2746,
      "ेश्व": 2747,
      "▁मैदान": 2748,
      "▁प्रजा": 2749,
      "स्थान": 2750,
      "▁संयोजक": 2751,
      "▁राखिएको": 2752,
      "कारा": 2753,
      "ँदैन": 2754,
      "कोट": 2755,
      "▁लो": 2756,
      "▁दशम": 2757,
      "कम्प": 2758,
      "सिंह": 2759,
      "▁छन्,": 2760,
      "नो": 2761,
      "ल्य": 2762,
      "▁अख": 2763,
      "▁ऐन": 2764,
      "ित्व": 2765,
      "षण": 2766,
      "भु": 2767,
      "▁दलका": 2768,
      "एमाले": 2769,
      "▁इन्टरने": 2770,
      "रीय": 2771,
      "ङले": 2772,
      "चारिक": 2773,
      "क्का": 2774,
      "कमल": 2775,
      "ीकृत": 2776,
      "भमा": 2777,
      "विद्यालय": 2778,
      "दाता": 2779,
      "▁कार्यरत": 2780,
      "▁महत्वपूर्ण": 2781,
      "▁धार": 2782,
      "्रेस": 2783,
      "▁हट": 2784,
      "▁नदि": 2785,
      "▁दिउँसो": 2786,
      "ेप": 2787,
      "▁पृ": 2788,
      "▁संशोधन": 2789,
      "▁पहा": 2790,
      "▁यसलाई": 2791,
      "▁क्षेत्रका": 2792,
      "द्वारा": 2793,
      "▁जवाफ": 2794,
      "▁शुभ": 2795,
      "▁उमेर": 2796,
      "ध्या": 2797,
      "नू": 2798,
      "े,": 2799,
      "▁उत्तर": 2800,
      "▁बोर्ड": 2801,
      "▁सक्रिय": 2802,
      "▁पुष्पकमल": 2803,
      "▁साँझ": 2804,
      "▁आफूलाई": 2805,
      "▁बताउँछन्": 2806,
      "साय": 2807,
      "▁प्रतिष्ठ": 2808,
      "▁बागमती": 2809,
      "▁एकता": 2810,
      "▁ललित": 2811,
      "▁मोर": 2812,
      "हरा": 2813,
      "शि": 2814,
      "▁नेतृत्वको": 2815,
      "▁औं": 2816,
      "▁माघ": 2817,
      "▁फर्कि": 2818,
      "▁तर्फबाट": 2819,
      "▁घु": 2820,
      "मिटर": 2821,
      "लाल": 2822,
      "▁मौसम": 2823,
      "▁दिइएको": 2824,
      "▁चुन": 2825,
      "▁बताउँदै": 2826,
      "...": 2827,
      "▁वित्तीय": 2828,
      "▁ट्रा": 2829,
      "▁भ्रष्टाचार": 2830,
      "कुद": 2831,
      "▁त्यति": 2832,
      "ालि": 2833,
      "▁सिर्": 2834,
      "▁सरकारलाई": 2835,
      "▁सामु": 2836,
      "▁राखेको": 2837,
      "दूर": 2838,
      "▁हुन्छ।": 2839,
      "▁प्रतिवेदन": 2840,
      "▁देशमा": 2841,
      "”,": 2842,
      "▁बाट": 2843,
      "एफ": 2844,
      "▁कले": 2845,
      "▁जब": 2846,
      "हुँ": 2847,
      "▁सभामुख": 2848,
      "▁स्त": 2849,
      "▁प्रकरण": 2850,
      "त्रु": 2851,
      "दल": 2852,
      "▁हेर्": 2853,
      "मीले": 2854,
      "▁खेलकुद": 2855,
      "▁सहा": 2856,
      "कृष्ट": 2857,
      "कारात्मक": 2858,
      "▁शर्माले": 2859,
      "▁असर": 2860,
      "▁हरि": 2861,
      "▁गुण": 2862,
      "दे": 2863,
      "पुरमा": 2864,
      "▁राह": 2865,
      "फ्": 2866,
      "▁एसपी": 2867,
      "▁समितिका": 2868,
      "▁मिला": 2869,
      "▁दिनुभयो": 2870,
      "▁चिनियाँ": 2871,
      "▁थाले": 2872,
      "▁मन्त्रालयका": 2873,
      "▁देशका": 2874,
      "▁सेयर": 2875,
      "जिम": 2876,
      "ानु": 2877,
      "▁माथि": 2878,
      "▁जस्ता": 2879,
      "▁शिक्षक": 2880,
      "▁प्रदेशको": 2881,
      "खो": 2882,
      "प्रधानमन्त्री": 2883,
      "▁गर्ने,": 2884,
      "▁बस्न": 2885,
      "पूर्व": 2886,
      "▁अर्थतन्त्र": 2887,
      "▁आन्दोलन": 2888,
      "वटा": 2889,
      "▁लागू": 2890,
      "▁प्रो": 2891,
      "▁रवि": 2892,
      "▁यसमा": 2893,
      "दानी": 2894,
      "▁बन्ने": 2895,
      "बाटै": 2896,
      "▁भारतको": 2897,
      "▁राख्न": 2898,
      "▁सहकार्य": 2899,
      "▁सङ्ख्या": 2900,
      "▁अघ": 2901,
      "▁कार्यकर्ता": 2902,
      "▁सचिवालय": 2903,
      "),": 2904,
      "▁दशमलव": 2905,
      "▁पहिचान": 2906,
      "▁विश्वविद्यालय": 2907,
      "▁बढ्ने": 2908,
      "हण": 2909,
      "▁योगदान": 2910,
      "दण्ड": 2911,
      "यता": 2912,
      "ंसा": 2913,
      "मेन्ट": 2914,
      "▁सुना": 2915,
      "मन": 2916,
      "▁शाह": 2917,
      "▁आचार्य": 2918,
      "▁बन्न": 2919,
      "▁की": 2920,
      "▁अधिकांश": 2921,
      "▁पुर्‍या": 2922,
      "न्दी": 2923,
      "▁अर्का": 2924,
      "▁आजको": 2925,
      "▁अदालत": 2926,
      "▁बोला": 2927,
      "▁राजी": 2928,
      "▁सञ्जाल": 2929,
      "▁कमा": 2930,
      "▁शेरबहादुर": 2931,
      "▁नगरपालिका–": 2932,
      "दौ": 2933,
      "▁ल्याउन": 2934,
      "पोर्ट": 2935,
      "▁चितवन": 2936,
      "▁माध्यम": 2937,
      "▁आवश्यकता": 2938,
      "मोजिम": 2939,
      "▁जनालाई": 2940,
      "दय": 2941,
      "▁एकीकृत": 2942,
      "▁धर्म": 2943,
      "▁सङ्क्रमण": 2944,
      "▁नपा": 2945,
      "▁यसरी": 2946,
      "▁बनेका": 2947,
      "▁अधिकारीले": 2948,
      "▁गर्नुभएको": 2949,
      "▁बाढी": 2950,
      "▁राजधानी": 2951,
      "सिर": 2952,
      "▁एकै": 2953,
      "▁यातायात": 2954,
      "▁स्रोत": 2955,
      "▁विज्ञप्": 2956,
      "एकाले": 2957,
      "▁जिल्लाको": 2958,
      "लै": 2959,
      "▁एसिया": 2960,
      "▁यसका": 2961,
      "▁साता": 2962,
      "▁एमालेका": 2963,
      "▁पुल": 2964,
      "लगायतका": 2965,
      "पर्ने": 2966,
      "▁हेर": 2967,
      "▁चर्चा": 2968,
      "▁छाड": 2969,
      "▁सिर्जना": 2970,
      "ज्ञा": 2971,
      "▁भौतिक": 2972,
      "▁राजदू": 2973,
      "▁लोकतान्त्रिक": 2974,
      "थो": 2975,
      "▁भुक्त": 2976,
      "▁ल्याएको": 2977,
      "▁पेश": 2978,
      "▁शव": 2979,
      "बाहेक": 2980,
      "▁अवधिमा": 2981,
      "▁पदाधिका": 2982,
      "▁नियमित": 2983,
      "भी": 2984,
      "▁नियन्त्रणमा": 2985,
      "▁कम्": 2986,
      "ँजी": 2987,
      "▁आयोजित": 2988,
      "न्दु": 2989,
      "▁बह": 2990,
      "मात्र": 2991,
      "▁कानू": 2992,
      "▁सुदूर": 2993,
      "▁रोक्": 2994,
      "▁विजयी": 2995,
      "ोरी": 2996,
      "▁विनि": 2997,
      "▁सम्पूर्ण": 2998,
      "कड": 2999,
      "▁अनुमति": 3000,
      "▁उनीहरू": 3001,
      "िकल": 3002,
      "ङ्गा": 3003,
      "पचारिक": 3004,
      "िने": 3005,
      "च्चा": 3006,
      "जेन्": 3007,
      "▁भनेका": 3008,
      "▁उनीहरु": 3009,
      "▁प्रभावकारी": 3010,
      "सव": 3011,
      "▁कप": 3012,
      "स्कार": 3013,
      "▁भूकम्प": 3014,
      "मका": 3015,
      "▁आउँ": 3016,
      "धव": 3017,
      "भ्या": 3018,
      "▁गैर": 3019,
      "सिल": 3020,
      "▁चैत": 3021,
      "▁चरणमा": 3022,
      "▁ब्य": 3023,
      "▁आप": 3024,
      "▁डु": 3025,
      "सोज": 3026,
      "ारु": 3027,
      "▁महासंघ": 3028,
      "▁फागुन": 3029,
      "ेसन": 3030,
      "▁दिँदै": 3031,
      "▁औषधि": 3032,
      "▁सरकारमा": 3033,
      "▁ग्राह": 3034,
      "▁ठा": 3035,
      "▁वस्तु": 3036,
      "▁भदौ": 3037,
      "जोर": 3038,
      "▁शिव": 3039,
      "▁क्षमता": 3040,
      "▁खानेपानी": 3041,
      "▁आयात": 3042,
      "▁जीव": 3043,
      "सङ्": 3044,
      "▁सिफारिस": 3045,
      "▁७०": 3046,
      "इड": 3047,
      "▁प्रतियोगिता": 3048,
      "▁आरोपमा": 3049,
      "▁त्यसलाई": 3050,
      "▁अने": 3051,
      "लिक": 3052,
      "▁गरेकी": 3053,
      "▁विरा": 3054,
      "▁ऊर्जा": 3055,
      "▁सकेन": 3056,
      "▁प्रतिबद्ध": 3057,
      "▁जन्म": 3058,
      "गु": 3059,
      "कुल": 3060,
      "▁मगर": 3061,
      "▁उत्कृष्ट": 3062,
      "▁पाकि": 3063,
      "▁चिकित्सक": 3064,
      "▁पालिका": 3065,
      "▁असोज": 3066,
      "चालन": 3067,
      "▁रूप": 3068,
      "▁लाइ": 3069,
      "▁काममा": 3070,
      "▁ढि": 3071,
      "▁यू": 3072,
      "▁कलेज": 3073,
      "▁पारित": 3074,
      "ीया": 3075,
      "सिय": 3076,
      "क्षर": 3077,
      "▁खण्ड": 3078,
      "▁मन्त्रिपरिषद्": 3079,
      "बाइ": 3080,
      "▁ठूला": 3081,
      "▁मिनेटमा": 3082,
      "ाउँदा": 3083,
      "▁फे": 3084,
      "▁फेला": 3085,
      "मे": 3086,
      "▁परराष्ट्र": 3087,
      "सम्मको": 3088,
      "वैधानिक": 3089,
      "▁कक्षा": 3090,
      "▁मोटर": 3091,
      "▁वायु": 3092,
      "८१": 3093,
      "▁पाएका": 3094,
      "▁स्थायी": 3095,
      "▁खन": 3096,
      "तह": 3097,
      "ानि": 3098,
      "पुरको": 3099,
      "▁ची": 3100,
      "▁बढ्दै": 3101,
      "पूर्ति": 3102,
      "ल्लाह": 3103,
      "▁नियुक्त": 3104,
      "▁खेती": 3105,
      "दायिक": 3106,
      "▁सुदूरपश्चिम": 3107,
      "▁चुनौती": 3108,
      "▁भे": 3109,
      "▁नब": 3110,
      "▁एक्": 3111,
      "▁धारणा": 3112,
      "▁अनुमान": 3113,
      "▁तपाईं": 3114,
      "▁भाइरस": 3115,
      "रले": 3116,
      "▁भिडियो": 3117,
      "▁एका": 3118,
      "▁३२": 3119,
      "▁अदालतले": 3120,
      "▁बनाइ": 3121,
      "▁त्यसका": 3122,
      "▁भुक्तानी": 3123,
      "▁पे": 3124,
      "मले": 3125,
      "▁देखा": 3126,
      "▁जति": 3127,
      "▁महो": 3128,
      "▁लगाउने": 3129,
      "▁फैस": 3130,
      "न्ता": 3131,
      "ँगै": 3132,
      "▁ल्याउने": 3133,
      "▁अनुभव": 3134,
      "लीमा": 3135,
      "▁माप": 3136,
      "▁व्याव": 3137,
      "▁‘हा": 3138,
      "▁विरुद्ध": 3139,
      "मिला": 3140,
      "▁परियोजना": 3141,
      "▁न्यायाधीश": 3142,
      "▁वार्ष": 3143,
      "▁कांग्रेसले": 3144,
      "▁शाही": 3145,
      "▁जानु": 3146,
      "▁युव": 3147,
      "▁न्यून": 3148,
      "▁बोक": 3149,
      "▁तहको": 3150,
      "▁सरो": 3151,
      "किङ": 3152,
      "▁माधव": 3153,
      "लादेश": 3154,
      "▁अनलाइन": 3155,
      "दन": 3156,
      "ालको": 3157,
      "▁आकर्ष": 3158,
      "नेपाल": 3159,
      "शाखा": 3160,
      "▁वैदेशिक": 3161,
      "▁समावेश": 3162,
      "हानगर": 3163,
      "▁नेतृत्वमा": 3164,
      "ित्त": 3165,
      "▁अपराध": 3166,
      "▁निरीक्षक": 3167,
      "ँग्रेस": 3168,
      "▁कालो": 3169,
      "▁पहल": 3170,
      "▁राजीनामा": 3171,
      "तीमा": 3172,
      "चन्द्र": 3173,
      "गि": 3174,
      "न्तु": 3175,
      "▁मं": 3176,
      "▁कहिले": 3177,
      "▁अनुदान": 3178,
      "▁कमजोर": 3179,
      "▁बढाउन": 3180,
      "लीको": 3181,
      "▁खेल्ने": 3182,
      "टिङ": 3183,
      "▁गाउँपालिका–": 3184,
      "▁बताइन्": 3185,
      "▁महासचिव": 3186,
      "▁इतिहा": 3187,
      "न्दे": 3188,
      "▁चन्द्र": 3189,
      "रान": 3190,
      "▁सम्बन्धमा": 3191,
      "▁देउवाले": 3192,
      "▁नहुँदा": 3193,
      "▁८०": 3194,
      "ृद्ध": 3195,
      "▁सम्पर्": 3196,
      "घाटन": 3197,
      "खान": 3198,
      "▁भएकी": 3199,
      "शुल्क": 3200,
      "ेटि": 3201,
      "घाट": 3202,
      "▁साथी": 3203,
      "▁वर्षीया": 3204,
      "टनगर": 3205,
      "▁नाका": 3206,
      "▁कट": 3207,
      "▁काँग्रेस": 3208,
      "▁मेड": 3209,
      "▁किलोमिटर": 3210,
      "▁राजनीतिमा": 3211,
      "▁सामुदायिक": 3212,
      "▁वर्ग": 3213,
      "▁यात्रु": 3214,
      "▁लिएका": 3215,
      "▁नसक्ने": 3216,
      "▁गर्नुभयो": 3217,
      "▁एयर": 3218,
      "ँडा": 3219,
      "▁त्यसमा": 3220,
      "ेश्वर": 3221,
      "प्ता": 3222,
      "▁नभए": 3223,
      "▁कम्पनीको": 3224,
      "▁प्रचण्डले": 3225,
      "स,": 3226,
      "▁प्रहार": 3227,
      "म्बु": 3228,
      "क्य": 3229,
      "टे": 3230,
      "▁गर्नुपर्छ": 3231,
      "टाइ": 3232,
      "रिक": 3233,
      "ारम्भ": 3234,
      "▁नप": 3235,
      "▁तस्क": 3236,
      "▁कम्युनिष्ट": 3237,
      "▁बैंकको": 3238,
      "ारो": 3239,
      "स्तरीय": 3240,
      "▁मापदण्ड": 3241,
      "▁मान्य": 3242,
      "▁जापान": 3243,
      "▁उम्मेदवारी": 3244,
      "▁पृथ": 3245,
      "▁गएका": 3246,
      "▁महाशाखा": 3247,
      "ला,": 3248,
      "▁जम्मा": 3249,
      "▁पदार्थ": 3250,
      "▁तहमा": 3251,
      "▁गरिएका": 3252,
      "▁भूमि": 3253,
      "म्परा": 3254,
      "▁केन्द्रका": 3255,
      "▁झापा": 3256,
      "▁विमानस्थल": 3257,
      "▁होइन,": 3258,
      "णिज्य": 3259,
      "न्देही": 3260,
      "▁कार्यालयका": 3261,
      "▁कसै": 3262,
      "▁छनोट": 3263,
      "पोख": 3264,
      "▁सालमा": 3265,
      "▁पुस्त": 3266,
      "▁घिमिर": 3267,
      "हे": 3268,
      "▁जसले": 3269,
      "▁सत्त": 3270,
      "▁ढकाल": 3271,
      "▁कठ": 3272,
      "▁गर्दछ": 3273,
      "त्तिक": 3274,
      "▁ओभ": 3275,
      "जुरी": 3276,
      "▁उद्धार": 3277,
      "▁अरू": 3278,
      "सलाई": 3279,
      "▁प्रत्यक्ष": 3280,
      "▁मज": 3281,
      "▁सुरक्षित": 3282,
      "▁प्रत्येक": 3283,
      "▁नं.": 3284,
      "होर": 3285,
      "▁गतिविधि": 3286,
      "▁राजा": 3287,
      "▁पार्टीले": 3288,
      "▁शरी": 3289,
      "▁साधन": 3290,
      "सित": 3291,
      "▁मान्छे": 3292,
      "प्रपा": 3293,
      "प्रमुख": 3294,
      "▁ट्या": 3295,
      "▁सहभागिता": 3296,
      "▁विभागले": 3297,
      "▁शेयर": 3298,
      "▁स्या": 3299,
      "भिजन": 3300,
      "यल": 3301,
      "▁अर्थात्": 3302,
      "▁उपभो": 3303,
      "▁२००": 3304,
      "▁उपमहानगर": 3305,
      "▁पूजा": 3306,
      "क्कली": 3307,
      "▁जिल्लाका": 3308,
      "▁पस": 3309,
      "▁२०६": 3310,
      "▁भरत": 3311,
      "▁अघिल्लो": 3312,
      "डे": 3313,
      "नेछ": 3314,
      "पथ": 3315,
      "▁प्रहरीको": 3316,
      "व्र": 3317,
      "▁परम्परा": 3318,
      "▁कर्जा": 3319,
      "कारको": 3320,
      "▁प्रतिष्ठान": 3321,
      "▁धान": 3322,
      "▁भुट": 3323,
      "▁राजमार्ग": 3324,
      "▁उनीहरुले": 3325,
      "▁४५": 3326,
      "▁आम्": 3327,
      "▁उखान": 3328,
      "▁भन्छन्,": 3329,
      "▁नक्कली": 3330,
      "–१९": 3331,
      "पत": 3332,
      "उँदा": 3333,
      "▁वर्षदेखि": 3334,
      "▁बताएको": 3335,
      "कलाई": 3336,
      "▁मन्दिर": 3337,
      "▁खर्": 3338,
      "▁खबर": 3339,
      "ष्य": 3340,
      "▁गराएको": 3341,
      "▁पर्छ": 3342,
      "सहितको": 3343,
      "▁लगाएको": 3344,
      "▁नर": 3345,
      "वाई": 3346,
      "▁बलियो": 3347,
      "▁प्रवाह": 3348,
      "▁प्रेम": 3349,
      "▁फरार": 3350,
      "▁स्म": 3351,
      "▁समर्थन": 3352,
      "▁जनाइएको": 3353,
      "▁मधेस": 3354,
      "पयोग": 3355,
      "▁विवाह": 3356,
      "▁पाकिस्तान": 3357,
      "▁होटल": 3358,
      "▁पुस": 3359,
      "▁स्वदेश": 3360,
      "▁प्रचार": 3361,
      "▁धु": 3362,
      "▁लागेका": 3363,
      "▁अध्या": 3364,
      "▁आर": 3365,
      "ेदार": 3366,
      "लत": 3367,
      "▁एमालेले": 3368,
      "▁आदि": 3369,
      "▁दबा": 3370,
      "▁स्थिति": 3371,
      "▁वार्ता": 3372,
      "▁गर्छन्": 3373,
      "संग": 3374,
      "ण्डा": 3375,
      "सिङ": 3376,
      "▁त्यसैगरी": 3377,
      "र्मिक": 3378,
      "साब": 3379,
      "ःख": 3380,
      "डमा": 3381,
      "▁भएन": 3382,
      "▁साइ": 3383,
      "▁विज्ञान": 3384,
      "▁औपचारिक": 3385,
      "▁द्व": 3386,
      "▁नो": 3387,
      "▁अर्थमन्त्री": 3388,
      "▁बन्": 3389,
      "शक्ति": 3390,
      "▁शरण": 3391,
      "▁यसैगरी": 3392,
      "रुपमा": 3393,
      "▁भारतमा": 3394,
      "्मी": 3395,
      "▁थालेका": 3396,
      "▁लाइन": 3397,
      "ल्ट": 3398,
      "▁पेट": 3399,
      "▁कार्यकाल": 3400,
      "▁अस्": 3401,
      "औं": 3402,
      "▁जस्तै": 3403,
      "▁राजस्व": 3404,
      "म्बा": 3405,
      "▁बर्ष": 3406,
      "▁जनामा": 3407,
      "▁नगरपालिकाले": 3408,
      "स्की": 3409,
      "े।": 3410,
      "▁त्यस्तो": 3411,
      "▁टिक": 3412,
      "▁पश्चिम": 3413,
      "▁फोन": 3414,
      "कुर": 3415,
      "परेको": 3416,
      "▁परिषद्": 3417,
      "▁सकारात्मक": 3418,
      "ाउनुपर्ने": 3419,
      "साधारण": 3420,
      "▁आम्दानी": 3421,
      "▁महिनामा": 3422,
      "तिको": 3423,
      "▁बला": 3424,
      "▁पारि": 3425,
      "▁यादवले": 3426,
      "▁पुर्या": 3427,
      "▁युद्ध": 3428,
      "च्": 3429,
      "▁वार्षिक": 3430,
      "▁खोजी": 3431,
      "▁उपचारका": 3432,
      "▁भाव": 3433,
      "▁अहिलेको": 3434,
      "नगर": 3435,
      "ेलले": 3436,
      "▁अनेक": 3437,
      "▁३३": 3438,
      "▁एन्": 3439,
      "▁ब्रा": 3440,
      "▁सञ्चालक": 3441,
      "▁भने।": 3442,
      "▁व्यवहार": 3443,
      "ष्णु": 3444,
      "▁विराटनगर": 3445,
      "नेर": 3446,
      "▁काग": 3447,
      "▁मल्": 3448,
      "पुग": 3449,
      "तै": 3450,
      "▁पारेको": 3451,
      "▁भर्ना": 3452,
      "।’": 3453,
      "र्चित": 3454,
      "▁गोर": 3455,
      "▁सल्लाह": 3456,
      "▁अत्य": 3457,
      "▁पुरस्कार": 3458,
      "लोक": 3459,
      "▁निर्माणको": 3460,
      "सपा": 3461,
      "▁अपे": 3462,
      "न्टर": 3463,
      "▁विधि": 3464,
      "नन्द": 3465,
      "▁मेयर": 3466,
      "▁नगर्ने": 3467,
      "मेल": 3468,
      "▁वे": 3469,
      "▁नागरिकता": 3470,
      "गढी": 3471,
      "▁अनुगमन": 3472,
      "मल": 3473,
      "▁जुट": 3474,
      "▁आवा": 3475,
      "जस्ता": 3476,
      "▁‘प्र": 3477,
      "▁पहाडी": 3478,
      "▁उद्घाटन": 3479,
      "▁दुःख": 3480,
      "▁चालु": 3481,
      "▁प्रेस": 3482,
      "थी": 3483,
      "▁दाय": 3484,
      "▁सामान": 3485,
      "▁भनी": 3486,
      "▁दिनभित्र": 3487,
      "▁बढ्न": 3488,
      "रुप": 3489,
      "लन": 3490,
      "▁लाभ": 3491,
      "▁कारणले": 3492,
      "▁दिएर": 3493,
      "बीचको": 3494,
      "देवी": 3495,
      "▁रुपन्देही": 3496,
      "▁समान": 3497,
      "▁वाणिज्य": 3498,
      "▁जनाएका": 3499,
      "▁तालिम": 3500,
      "▁च्याम्प": 3501,
      "▁उनीहरूले": 3502,
      "▁अवि": 3503,
      "▁धार्मिक": 3504,
      "रोह": 3505,
      "▁कैला": 3506,
      "कर": 3507,
      "▁गृहमन्त्री": 3508,
      "माव": 3509,
      "▁नति": 3510,
      "▁लकड": 3511,
      "▁स्थित": 3512,
      "▁हुनेछ।": 3513,
      "कला": 3514,
      "मिन": 3515,
      "फिक": 3516,
      "घु": 3517,
      "द्द": 3518,
      "▁नाय": 3519,
      "ब्द": 3520,
      "▁स्थापित": 3521,
      "ृत्ति": 3522,
      "▁कथा": 3523,
      "क्षिक": 3524,
      "▁गएर": 3525,
      "▁‘म": 3526,
      "▁सम्बन्धी": 3527,
      "▁रक्षा": 3528,
      "न्थ्यो": 3529,
      "▁प्रसार": 3530,
      "णी": 3531,
      "▁केन्द्रित": 3532,
      "▁रण": 3533,
      "▁संकलन": 3534,
      "▁माइ": 3535,
      "▁राहत": 3536,
      "▁आह": 3537,
      "▁सिंहले": 3538,
      "▁मोबाइ": 3539,
      "▁काठमाडौंमा": 3540,
      "ङका": 3541,
      "▁खाना": 3542,
      "▁युनि": 3543,
      "▁जोग": 3544,
      "-१": 3545,
      "बन्दी": 3546,
      "▁जनक": 3547,
      "▁जाँदा": 3548,
      "लका": 3549,
      "▁सिट": 3550,
      "लिएको": 3551,
      "▁मतदाता": 3552,
      "▁शुल्क": 3553,
      "▁उजुरी": 3554,
      "हाज": 3555,
      "त्कार": 3556,
      "यौं": 3557,
      "रलाई": 3558,
      "आइ": 3559,
      "▁संवैधानिक": 3560,
      "सै": 3561,
      "समि": 3562,
      "▁फुटबल": 3563,
      "▁प्रतिशतले": 3564,
      "▁लगाउन": 3565,
      "▁उहाँको": 3566,
      "▁सडकमा": 3567,
      "एई": 3568,
      "▁उपाधि": 3569,
      "▁क्रिया": 3570,
      "दीको": 3571,
      "नुपर्छ।": 3572,
      "▁पदाधिकारी": 3573,
      "ोका": 3574,
      "▁डिजि": 3575,
      "▁निगम": 3576,
      "वाल": 3577,
      "▁राजदूत": 3578,
      "▁आए": 3579,
      "¥या": 3580,
      "▁बंग": 3581,
      "▁वर्त": 3582,
      "▁उपरीक्षक": 3583,
      "न्छन्": 3584,
      "हीन": 3585,
      "▁प्रतियोगितामा": 3586,
      "दारी": 3587,
      "▁कुमार": 3588,
      "▁बढाउने": 3589,
      "▁त्यस्तै,": 3590,
      "▁शैक्षिक": 3591,
      "मूल": 3592,
      "▁भन्सार": 3593,
      "▁अख्": 3594,
      "त्तै": 3595,
      "▁जरु": 3596,
      "ेमा": 3597,
      "▁गलत": 3598,
      "▁विपक्ष": 3599,
      "स्सा": 3600,
      "न्धु": 3601,
      "▁लड": 3602,
      "▁३६": 3603,
      "▁भयो।": 3604,
      "ट्या": 3605,
      "▁प्रतिबद्धता": 3606,
      "▁सन्देश": 3607,
      "▁पेस": 3608,
      "▁प्रकाशन": 3609,
      "▁भै": 3610,
      "▁मात्रा": 3611,
      "▁अभ्या": 3612,
      "चक": 3613,
      "▁जरुरी": 3614,
      "▁निर्माणका": 3615,
      "▁छुट्": 3616,
      "▁बालुवा": 3617,
      "▁बराबरको": 3618,
      "हित्य": 3619,
      "▁बलमा": 3620,
      "▁नियम": 3621,
      "▁धारा": 3622,
      "▁उपभोक्ता": 3623,
      "▁जोशी": 3624,
      "नाको": 3625,
      "उनुपर्ने": 3626,
      "स्थलमा": 3627,
      "▁बेच": 3628,
      "▁साना": 3629,
      "▁आँखा": 3630,
      "नुहुन्छ": 3631,
      "वाइ": 3632,
      "▁दाहालले": 3633,
      "▁नेपालग": 3634,
      "▁छोरी": 3635,
      "▁नम": 3636,
      "▁मेल": 3637,
      "▁सरकारका": 3638,
      "▁आग": 3639,
      "▁अक्": 3640,
      "तावास": 3641,
      "नलमा": 3642,
      "माओवादी": 3643,
      "▁तरकारी": 3644,
      "▁नसक": 3645,
      "ुट्": 3646,
      "▁अनुरोध": 3647,
      "▁जनाले": 3648,
      "▁अदालतमा": 3649,
      "▁निः": 3650,
      "टु": 3651,
      "लम्ब": 3652,
      "कारि": 3653,
      "▁मेडिकल": 3654,
      "▁तुलनामा": 3655,
      "▁युरो": 3656,
      "हरी": 3657,
      "श्वर": 3658,
      "▁सर्वसाधारण": 3659,
      "▁साउ": 3660,
      "▁कप्त": 3661,
      "गढ": 3662,
      "▁भत्": 3663,
      "यमा": 3664,
      "▁गर्नका": 3665,
      "▁मैदानमा": 3666,
      "▁नम्ब": 3667,
      "सक्दा": 3668,
      "▁बढ्": 3669,
      "▁हिमाल": 3670,
      "यनमा": 3671,
      "▁ज्ञान": 3672,
      "जे": 3673,
      "्यो।": 3674,
      "दीप": 3675,
      "ल्यान्ड": 3676,
      "▁चासो": 3677,
      "वधान": 3678,
      "▁गए": 3679,
      "▁सूर्य": 3680,
      "▁जग": 3681,
      "▁लोकतन्त्र": 3682,
      "▁,": 3683,
      "▁भन्न": 3684,
      "त्सव": 3685,
      "द्रा": 3686,
      "साल": 3687,
      "▁नतिजा": 3688,
      "▁दबाब": 3689,
      "जन्य": 3690,
      "▁डलर": 3691,
      "ार्थी": 3692,
      "▁छ,’": 3693,
      "▁बसेर": 3694,
      "▁साझ": 3695,
      "▁कसैले": 3696,
      "▁तोकिएको": 3697,
      "▁श्रील": 3698,
      "यो,": 3699,
      "▁प्रा.": 3700,
      "▁प्रारम्भ": 3701,
      "▁उपमहानगरपालिका": 3702,
      "▁हासिल": 3703,
      "स्तर": 3704,
      "भाइ": 3705,
      "▁शरणार्थी": 3706,
      "▁सहर": 3707,
      "▁हस्ताक्षर": 3708,
      "▁भोलि": 3709,
      "▁इट": 3710,
      "वाला": 3711,
      "▁घरेलु": 3712,
      "▁७५": 3713,
      "▁निवास": 3714,
      "–०": 3715,
      "व्या": 3716,
      "▁गतेदेखि": 3717,
      "▁समीकरण": 3718,
      "▁तस्": 3719,
      "ढे": 3720,
      "▁व्यावसाय": 3721,
      "▁क्याम्प": 3722,
      "तरा": 3723,
      "▁हिजो": 3724,
      "तः": 3725,
      "नहुँ": 3726,
      "▁सिद्धा": 3727,
      "▁अपना": 3728,
      "मेश": 3729,
      "्वान": 3730,
      "▁वर्तमान": 3731,
      "▁मर्म": 3732,
      "▁आएर": 3733,
      "▁पाइएको": 3734,
      "▁समेट": 3735,
      "▁राप्रपा": 3736,
      "▁भवि": 3737,
      "▁भण्डारीले": 3738,
      "▁पहु": 3739,
      "▁हिंसा": 3740,
      "▁ब्याज": 3741,
      "▁गरिसकेको": 3742,
      "▁दीपक": 3743,
      "ंगो": 3744,
      "नीति": 3745,
      "▁कलाकार": 3746,
      "भूत": 3747,
      "▁दोष": 3748,
      "▁दुर्घटनामा": 3749,
      "एक": 3750,
      "▁लाई": 3751,
      "▁मोटरसाइ": 3752,
      "न्दर": 3753,
      "▁महत्": 3754,
      "ुक": 3755,
      "▁बढि": 3756,
      "ताले": 3757,
      "संख्या": 3758,
      "▁परेपछि": 3759,
      "▁उनीहरुको": 3760,
      "▁साहित्य": 3761,
      "द्व": 3762,
      "▁रोजगार": 3763,
      "▁अपेक्षा": 3764,
      "▁कोरिया": 3765,
      "▁ब्र": 3766,
      "▁परिणा": 3767,
      "▁निर्धारण": 3768,
      "▁तिन": 3769,
      "▁पास": 3770,
      "▁पुगेर": 3771,
      "▁स्थग": 3772,
      "▁पुनर्": 3773,
      "▁आह्वान": 3774,
      "र्ख": 3775,
      "टाले": 3776,
      "▁सन्दर्": 3777,
      "प्रतिनिधि": 3778,
      "▁रंग": 3779,
      "▁टिप्": 3780,
      "▁हिँड": 3781,
      "▁थियो,": 3782,
      "▁दलले": 3783,
      "स्कृतिक": 3784,
      "▁एउटै": 3785,
      "▁भाडा": 3786,
      "–२": 3787,
      "िल": 3788,
      "चौ": 3789,
      "▁सम्मेलन": 3790,
      "▁भट्टराईले": 3791,
      "▁अग्रता": 3792,
      "एमाले)": 3793,
      "▁पहुँच": 3794,
      "र्ती": 3795,
      "▁९०": 3796,
      "▁पुँजी": 3797,
      "▁बाग": 3798,
      "फी": 3799,
      "▁सुनु": 3800,
      "▁आनन्द": 3801,
      "▁सृ": 3802,
      "▁आलो": 3803,
      "▁सरोकार": 3804,
      "▁हिसाब": 3805,
      "▁दिनको": 3806,
      "▁चुना": 3807,
      "▁खुसी": 3808,
      "▁नआ": 3809,
      "▁मेगा": 3810,
      "▁खर्ब": 3811,
      "▁सिका": 3812,
      "▁ओभरमा": 3813,
      "दिएको": 3814,
      "▁फोर": 3815,
      "▁डिजिटल": 3816,
      "▁सत्य": 3817,
      "▁ज्ञा": 3818,
      "▁केन्द्रमा": 3819,
      "ालो": 3820,
      "▁राखेका": 3821,
      "तिकै": 3822,
      "▁मध्ये": 3823,
      "▁प्राधिकरणका": 3824,
      "साथ": 3825,
      "▁किश": 3826,
      "रूपमा": 3827,
      "▁भन्नुभयो,": 3828,
      "▁व्यक्तिको": 3829,
      "नाई": 3830,
      "▁सम्पत्ति": 3831,
      "हरण": 3832,
      "▁हित": 3833,
      "▁फाइदा": 3834,
      "▁विष्णु": 3835,
      "▁बमोजिम": 3836,
      "▁छिन्": 3837,
      "▁आशा": 3838,
      "छु": 3839,
      "▁जनसंख्या": 3840,
      "▁२०५": 3841,
      "मिटेड": 3842,
      "▁मुलुकको": 3843,
      "▁नेपाललाई": 3844,
      "ेली": 3845,
      "▁खड्काले": 3846,
      "शनल": 3847,
      "ज्ञान": 3848,
      "▁कवि": 3849,
      "▁गराएका": 3850,
      "▁अवरुद्ध": 3851,
      "▁महाधिवेशन": 3852,
      "▁सङ्घीय": 3853,
      "▁बाबु": 3854,
      "▁ओलीको": 3855,
      "टार": 3856,
      "▁विद्यालयमा": 3857,
      "▁फैसला": 3858,
      "▁जसमा": 3859,
      "▁’": 3860,
      "▁विनियोजन": 3861,
      "नीतिक": 3862,
      "▁प्रग": 3863,
      "▁पर्या": 3864,
      "लिन": 3865,
      "▁ग्": 3866,
      "▁सजि": 3867,
      "▁सदर": 3868,
      "▁सिन्धु": 3869,
      "▁संविधानको": 3870,
      "▁दिला": 3871,
      "▁उनीहरूको": 3872,
      "▁गतेसम्म": 3873,
      "▁मंसिर": 3874,
      "▁मार्ग": 3875,
      "▁घटेको": 3876,
      "पे": 3877,
      "▁फल": 3878,
      "▁तीव्र": 3879,
      "ल्का": 3880,
      "▁कोशी": 3881,
      "▁भविष्य": 3882,
      "▁अम": 3883,
      "▁कानुनी": 3884,
      "▁(एमाले)": 3885,
      "ब्र": 3886,
      "▁बनाएका": 3887,
      "▁वडाध्यक्ष": 3888,
      "▁भएपनि": 3889,
      "▁जहाज": 3890,
      "▁रिपोर्ट": 3891,
      "▁३४": 3892,
      "जस्तो": 3893,
      "▁तथ्यांक": 3894,
      "▁ठेक्": 3895,
      "▁बुट": 3896,
      "▁बच्चा": 3897,
      "▁आफन्त": 3898,
      "▁प्रशिक्षण": 3899,
      "▁दिनु": 3900,
      "▁निःशुल्क": 3901,
      "▁मान्यता": 3902,
      "▁पुग्न": 3903,
      "▁५५": 3904,
      "▁कात्तिक": 3905,
      "शासन": 3906,
      "शाला": 3907,
      "▁लिमिटेड": 3908,
      "हारी": 3909,
      "▁यस्तै,": 3910,
      "▁मन्त्रालयको": 3911,
      "▁पश्च": 3912,
      "▁सिँच": 3913,
      "▁दृष्टि": 3914,
      "▁बीमा": 3915,
      "▁सम्भव": 3916,
      "▁पाउन": 3917,
      "▁भक्तपुर": 3918,
      "▁हार": 3919,
      "▁माध्यमबाट": 3920,
      "ल्छ": 3921,
      "▁जाँच": 3922,
      "युक्ति": 3923,
      "▁आयोजनाको": 3924,
      "जको": 3925,
      "▁लगातार": 3926,
      "वाट": 3927,
      "▁पदमा": 3928,
      "नियर": 3929,
      "्यू": 3930,
      "▁ठेक्का": 3931,
      "▁भारतले": 3932,
      "▁सङ्क्रमित": 3933,
      "र्या": 3934,
      "निर्माण": 3935,
      "▁दोहो": 3936,
      "राख": 3937,
      "▁चुनावी": 3938,
      "▁गरिन्छ": 3939,
      "▁किसि": 3940,
      "▁लाग्छ": 3941,
      "▁जनताले": 3942,
      "▁इजला": 3943,
      "खर": 3944,
      "▁प्रधानमन्त्रीको": 3945,
      "▁उद्देश्यले": 3946,
      "रामा": 3947,
      "▁‘स": 3948,
      "▁मिति": 3949,
      "▁सजा": 3950,
      "किने": 3951,
      "▁अख्तियार": 3952,
      "काे": 3953,
      "र्मा": 3954,
      "▁भेटि": 3955,
      "▁नियुक्ति": 3956,
      "बे": 3957,
      "▁सबैलाई": 3958,
      "दम": 3959,
      "▁लम्": 3960,
      "▁उसले": 3961,
      "▁आफैं": 3962,
      "▁कास्की": 3963,
      "▁नभई": 3964,
      "▁मुलुकमा": 3965,
      "▁म्याग्": 3966,
      "▁पुरानो": 3967,
      "ल्याण्ड": 3968,
      "नीकरण": 3969,
      "औँ": 3970,
      "नेको": 3971,
      "▁सहायक": 3972,
      "▁जनप्रतिनिधि": 3973,
      "ट्र": 3974,
      "म,": 3975,
      "▁चालक": 3976,
      "▁विसं": 3977,
      "▁हुन्छन्": 3978,
      "त्न": 3979,
      "▁विकासका": 3980,
      "▁कांग्रेसको": 3981,
      "▁यता": 3982,
      "▁देखिएका": 3983,
      "▁विघ": 3984,
      "▁प्रतिवेद": 3985,
      "▁परिस्थिति": 3986,
      "▁बीच": 3987,
      "गण": 3988,
      "▁बिदा": 3989,
      "▁चयन": 3990,
      "▁विकल्प": 3991,
      "▁प्रसारण": 3992,
      "्ले": 3993,
      "वनको": 3994,
      "▁अभियुक्त": 3995,
      "▁अधि": 3996,
      "कट": 3997,
      "▁बुझा": 3998,
      "▁छोड": 3999,
      "▁साढे": 4000,
      "▁सम्पर्क": 4001,
      "▁व्यावसायिक": 4002,
      "▁निम्ति": 4003,
      "▁उदय": 4004,
      "▁सिँचाइ": 4005,
      "▁यद्य": 4006,
      "▁आएपछि": 4007,
      "▁अत्या": 4008,
      "एल": 4009,
      "▁४२": 4010,
      "▁हेर्दा": 4011,
      "▁प्रजातन्त्र": 4012,
      "▁सबैको": 4013,
      "▁शब्द": 4014,
      "▁सै": 4015,
      "क्रा": 4016,
      "▁नगद": 4017,
      "▁एवम्": 4018,
      "▁पु¥या": 4019,
      "▁जलविद्य": 4020,
      "▁हस्तान्तरण": 4021,
      "ठी": 4022,
      "▁उपस्थिति": 4023,
      "▁चिन्ता": 4024,
      "होस्": 4025,
      "▁कुन": 4026,
      "▁गोरखा": 4027,
      "▁सोध": 4028,
      "▁सम्मेलनमा": 4029,
      "वाही": 4030,
      "▁बार": 4031,
      "▁है": 4032,
      "आफ": 4033,
      "िकाले": 4034,
      "▁चे": 4035,
      "रीका": 4036,
      "▁सध": 4037,
      "▁बसेका": 4038,
      "▁वर्षका": 4039,
      "▁विभा": 4040,
      "▁नस": 4041,
      "▁सक्दैन": 4042,
      "▁संगठन": 4043,
      "▁गाउँमा": 4044,
      "ौला": 4045,
      "▁औँ": 4046,
      "न्छु": 4047,
      "▁दिनुपर्ने": 4048,
      "भे": 4049,
      "▁गुरुङले": 4050,
      "लक": 4051,
      "▁सानो": 4052,
      "▁सापको": 4053,
      "बारी": 4054,
      "▁महामन्त्री": 4055,
      "▁मले": 4056,
      "▁एमालेको": 4057,
      "▁नगरी": 4058,
      "▁पुरा": 4059,
      "ेलिया": 4060,
      "▁जनशक्ति": 4061,
      "▁छिम": 4062,
      "▁ठो": 4063,
      "▁नरहेको": 4064,
      "▁मधेश": 4065,
      "प्ले": 4066,
      "▁साझा": 4067,
      "▁प्रशिक्षक": 4068,
      "▁२०७४": 4069,
      "ेलिक": 4070,
      "▁उदा": 4071,
      "▁सौ": 4072,
      "स्ट्र": 4073,
      "▁लामा": 4074,
      "▁नगरपालिकाका": 4075,
      "▁ढा": 4076,
      "तिहासिक": 4077,
      "▁समग्र": 4078,
      "▁बनाइएको": 4079,
      "▁सैनिक": 4080,
      "ोरै": 4081,
      "सीले": 4082,
      "▁उपप्रधानमन्त्री": 4083,
      "ल्ड": 4084,
      "▁निकट": 4085,
      "सीको": 4086,
      "▁खेलको": 4087,
      "▁संसार": 4088,
      "▁पार्ने": 4089,
      "वार्य": 4090,
      "▁सुख": 4091,
      "जनको": 4092,
      "▁मल": 4093,
      "▁मार्फत": 4094,
      "ेन्स": 4095,
      "▁कम्तीमा": 4096,
      "द्र्": 4097,
      "नल": 4098,
      "पणी": 4099,
      "▁कोभिड–१९": 4100,
      "▁बेलायत": 4101,
      "▁महसु": 4102,
      "▁समृद्धि": 4103,
      "श्र": 4104,
      "ँ।": 4105,
      "वार्ड": 4106,
      "श्वास": 4107,
      "▁तहका": 4108,
      "▁तनहुँ": 4109,
      "▁चौथो": 4110,
      "▁अनिवार्य": 4111,
      "▁महानि": 4112,
      "नय": 4113,
      "▁ग्या": 4114,
      "▁रनको": 4115,
      "▁श्रीमती": 4116,
      "▁जसपा": 4117,
      "▁टो": 4118,
      "खेल": 4119,
      "▁पर्यटकीय": 4120,
      "▁सुरुवा": 4121,
      "▁कमी": 4122,
      "▁कार्कीले": 4123,
      "▁महत्त्व": 4124,
      "▁मोबाइल": 4125,
      "▁नारा": 4126,
      "▁तराई": 4127,
      "▁चीनको": 4128,
      "न्तव्य": 4129,
      "ञ्चन": 4130,
      "▁थालेपछि": 4131,
      "▁कडा": 4132,
      "▁यहाँका": 4133,
      "▁लाग्": 4134,
      "▁आवाज": 4135,
      "व्यक्ति": 4136,
      "▁३७": 4137,
      "क्रो": 4138,
      "▁विभागका": 4139,
      "▁पाठ": 4140,
      "▁न्यु": 4141,
      "▁आयोजक": 4142,
      "▁बाहिरि": 4143,
      "भुवन": 4144,
      "▁निर्यात": 4145,
      "क्ने": 4146,
      "▁रहेकाले": 4147,
      "▁परिचालन": 4148,
      "▁चौधरी": 4149,
      "▁एजेन्": 4150,
      "▁६५": 4151,
      "▁निधन": 4152,
      "▁विश्वकप": 4153,
      "▁गर्नेछ": 4154,
      "▁खारे": 4155,
      "▁डी": 4156,
      "▁महिलाको": 4157,
      "▁ट्राफिक": 4158,
      "▁सपना": 4159,
      "▁भग": 4160,
      "▁थोरै": 4161,
      "कृष्ण": 4162,
      "▁ऐतिहासिक": 4163,
      "तिका": 4164,
      "▁सकिएको": 4165,
      "▁सृजना": 4166,
      "▁अधिवेशन": 4167,
      "▁लगाएका": 4168,
      "▁नगरेको": 4169,
      "▁अर": 4170,
      "षे": 4171,
      "▁गणतन्त्र": 4172,
      "लिङ": 4173,
      "एसपी": 4174,
      "▁सार": 4175,
      "चु": 4176,
      "▁माया": 4177,
      "▁बंगलादेश": 4178,
      "▁फेस": 4179,
      "▁न्यूनीकरण": 4180,
      "▁कोठा": 4181,
      "▁सुवे": 4182,
      "कुमारी": 4183,
      "▁त्रिभुवन": 4184,
      "▁घो": 4185,
      "कानी": 4186,
      "कूल": 4187,
      "▁भीम": 4188,
      "▁डाक्टर": 4189,
      "▁विधान": 4190,
      "▁लकडाउन": 4191,
      "▁यथा": 4192,
      "ज्": 4193,
      "जिर": 4194,
      "न्यायाधीश": 4195,
      "▁अभिने": 4196,
      "▁बलात्कार": 4197,
      "▁मेस": 4198,
      "▁गाउँपालिकाका": 4199,
      "▁पाण्डेले": 4200,
      "त्सा": 4201,
      "▁२०७९": 4202,
      "▁उपयोग": 4203,
      "▁कम्युनिस्ट": 4204,
      "▁पञ्च": 4205,
      "▁कप्तान": 4206,
      "▁राउ": 4207,
      "तालाई": 4208,
      "▁चलि": 4209,
      "▁काउ": 4210,
      "हरूका": 4211,
      "षद": 4212,
      "▁विजय": 4213,
      "▁ललितपुर": 4214,
      "▁पठाउनु": 4215,
      "▁क्रा": 4216,
      "▁क्वार": 4217,
      "▁नागरिकलाई": 4218,
      "श्": 4219,
      "▁टेलि": 4220,
      "▁तेल": 4221,
      "▁निस्क": 4222,
      "▁भुटानी": 4223,
      "▁स्थिर": 4224,
      "▁व्यवस्थाप": 4225,
      "▁पार्टीभित्र": 4226,
      "कामना": 4227,
      "▁श्रेष्ठलाई": 4228,
      "▁ढंग": 4229,
      "▁हेर्न": 4230,
      "र,": 4231,
      "सोले": 4232,
      "मावली": 4233,
      "▁मुद्दामा": 4234,
      "िमा": 4235,
      "▁लगाएर": 4236,
      "▁बाहेक": 4237,
      "▁बहादुर": 4238,
      "▁गणेश": 4239,
      "क,": 4240,
      "वडा": 4241,
      "▁भर": 4242,
      "▁मामिला": 4243,
      "▁हवाई": 4244,
      "▁लक्षित": 4245,
      "▁थुप्र": 4246,
      "ब्बा": 4247,
      "▁पोखरेलले": 4248,
      "▁३८": 4249,
      "▁स्थगित": 4250,
      "निर्वाच": 4251,
      "▁७६": 4252,
      "▁सर्वा": 4253,
      "▁हुनुपर्छ": 4254,
      "▁परिणाम": 4255,
      "▁प्रतिबन्ध": 4256,
      "▁सजाय": 4257,
      "▁निरन्तरता": 4258,
      "▁निषे": 4259,
      "▁उपस्थित": 4260,
      "▁बोल्दै": 4261,
      "▁कुट": 4262,
      "ोध": 4263,
      "राको": 4264,
      "कर्षण": 4265,
      "▁पछा": 4266,
      "▁दिवस": 4267,
      "▁सांस्कृतिक": 4268,
      "▁आवेद": 4269,
      "▁कहाँ": 4270,
      "▁दलित": 4271,
      "इरहेको": 4272,
      "▁आपूर्ति": 4273,
      "जान": 4274,
      "्याम": 4275,
      "▁लागिएको": 4276,
      "दीले": 4277,
      "च्छा": 4278,
      "इँ": 4279,
      "▁व्यक्तिगत": 4280,
      "▁‘य": 4281,
      "वक्ता": 4282,
      "▁न्यौ": 4283,
      "इने": 4284,
      "▁दायर": 4285,
      "▁प्राथमिकता": 4286,
      "▁कामदार": 4287,
      "▁प्रदीप": 4288,
      "▁नजिकै": 4289,
      "जाने": 4290,
      "▁सदरमु": 4291,
      "▁गाउँपालिकामा": 4292,
      "त,": 4293,
      "▁जाग": 4294,
      "▁श्रीलंका": 4295,
      "▁भनिन्,": 4296,
      "▁मिलेर": 4297,
      "▁टिप्पणी": 4298,
      "▁२०८०": 4299,
      "▁रोक्न": 4300,
      "▁गराइ": 4301,
      "▁जिम्मा": 4302,
      "▁छैन,": 4303,
      "▁अर्य": 4304,
      "▁जितेको": 4305,
      "▁काट": 4306,
      "वनी": 4307,
      "▁निष्कर्ष": 4308,
      "▁ध्याना": 4309,
      "▁राणा": 4310,
      "व्यापी": 4311,
      "जमा": 4312,
      "▁राजेन्द्र": 4313,
      "▁स्वय": 4314,
      "ेक्टर": 4315,
      "▁पृथ्वी": 4316,
      "सेवा": 4317,
      "▁वास्त": 4318,
      "वनमा": 4319,
      "▁प्रधानमन्त्रीले": 4320,
      "रूप": 4321,
      "लिया": 4322,
      "क्षेप": 4323,
      "▁बस्ती": 4324,
      "▁ग्राहक": 4325,
      "▁दुरु": 4326,
      "▁जोडि": 4327,
      "▁प्रगति": 4328,
      "▁मोरङको": 4329,
      "स्टर": 4330,
      "▁छिमेकी": 4331,
      "‍यो": 4332,
      "▁श्रमिक": 4333,
      "दिने": 4334,
      "ल्यै": 4335,
      "▁बुद्ध": 4336,
      "मार्ट": 4337,
      "ङ्गल": 4338,
      "▁यदि": 4339,
      "▁सन्दर्भमा": 4340,
      "▁डिभिजन": 4341,
      "▁कोइराला": 4342,
      "▁नदिने": 4343,
      "▁भाइरसको": 4344,
      "▁बहस": 4345,
      "▁उत्सा": 4346,
      "▁बग": 4347,
      "धुनिक": 4348,
      "▁व्यवस्थित": 4349,
      "▁राख्": 4350,
      "▁विजेता": 4351,
      "▁बहुमत": 4352,
      "ट्टा": 4353,
      "▁कित्": 4354,
      "▁रमा": 4355,
      "▁न्यौपा": 4356,
      "▁समूहले": 4357,
      "मला": 4358,
      "▁मेला": 4359,
      "▁पठाएको": 4360,
      "▁अन्न": 4361,
      "▁हाम्रा": 4362,
      "▁अवरोध": 4363,
      "▁जहाँ": 4364,
      "▁प्राकृतिक": 4365,
      "▁साधारण": 4366,
      "▁सन्दी": 4367,
      "▁रेल": 4368,
      "▁विज्ञप्तिमा": 4369,
      "▁बढा": 4370,
      "▁सुन्दर": 4371,
      "▁प्रतिक्रिया": 4372,
      "▁!": 4373,
      "ँस": 4374,
      "▁मनसु": 4375,
      "▁निश्चित": 4376,
      "▁दम": 4377,
      "सङ्घ": 4378,
      "▁सब": 4379,
      "▁सभामा": 4380,
      "▁हिम": 4381,
      "▁भेला": 4382,
      "्रै": 4383,
      "▁त्यसले": 4384,
      "▁बुढा": 4385,
      "▁सेन्टर": 4386,
      "सामा": 4387,
      "▁संक्रमितको": 4388,
      "▁वर्षअघि": 4389,
      "▁बैं": 4390,
      "टीमा": 4391,
      "▁छिटो": 4392,
      "▁आधारित": 4393,
      "हरुका": 4394,
      "▁प्राधिकरणले": 4395,
      "▁बन्दै": 4396,
      "पूर्वक": 4397,
      "▁नगरपालिकाको": 4398,
      "▁संघर्ष": 4399,
      "▁कानून": 4400,
      "▁ध्यानाकर्षण": 4401,
      "र्का": 4402,
      "▁तु": 4403,
      "▁बाह": 4404,
      "▁उनीहरुलाई": 4405,
      "▁अवै": 4406,
      "▁निको": 4407,
      "र्द": 4408,
      "▁वि.": 4409,
      "▁पठाउने": 4410,
      "▁पर्दा": 4411,
      "▁रहेछ": 4412,
      "▁खस": 4413,
      "▁‘क": 4414,
      "▁आगला": 4415,
      "▁प्ला": 4416,
      "▁निर्माणमा": 4417,
      "▁केसीले": 4418,
      "▁कस्तो": 4419,
      "▁कुराकानी": 4420,
      "▁४१": 4421,
      "▁यद्यपि": 4422,
      "▁च्याम्पियन": 4423,
      "▁चुनावमा": 4424,
      "डर": 4425,
      "▁मिनेट": 4426,
      "नाका": 4427,
      "दृ": 4428,
      "ण्डै": 4429,
      "▁सबैले": 4430,
      "▁सहयोगमा": 4431,
      "▁अग": 4432,
      "▁गाउँपालिकाको": 4433,
      "▁विष्ट": 4434,
      "पत्रमा": 4435,
      "▁उचित": 4436,
      "▁हुन्थ्यो": 4437,
      "▁जेल": 4438,
      "्वि": 4439,
      "००": 4440,
      "▁महोत्सव": 4441,
      "बास": 4442,
      "▁एमसीसी": 4443,
      "▁भनाई": 4444,
      "▁पवन": 4445,
      "▁पाए": 4446,
      "▁उत्र": 4447,
      "▁स्वास्थ्यकर्मी": 4448,
      "ल्ली": 4449,
      "▁ट्रम्प": 4450,
      "यौँ": 4451,
      "▁पहिला": 4452,
      "▁कुरामा": 4453,
      "▁बताउँछन्।": 4454,
      "▁समुद्र": 4455,
      "▁राना": 4456,
      "विध": 4457,
      "ंशिक": 4458,
      "सिन्दा": 4459,
      "यन्त्र": 4460,
      "▁बेन्": 4461,
      "▁बीचमा": 4462,
      "▁चेता": 4463,
      "र्खेत": 4464,
      "▁आलोचना": 4465,
      "र्चु": 4466,
      "▁बिजु": 4467,
      "ुञ्ज": 4468,
      "▁व्यक्तिलाई": 4469,
      "▁ज्या": 4470,
      "▁फोटो": 4471,
      "्रोल": 4472,
      "▁गुनासो,": 4473,
      "▁सफलता": 4474,
      "र्सि": 4475,
      "▁बागलु": 4476,
      "▁समारोह": 4477,
      "▁पर्याप्त": 4478,
      "’को": 4479,
      "▁मोटरसाइकल": 4480,
      "▁सामग्रीबारे": 4481,
      "▁युक्र": 4482,
      "▁सिद्धान्त": 4483,
      "▁सहरी": 4484,
      "्याउने": 4485,
      "चर": 4486,
      "▁इन्टरनेशनल": 4487,
      "▁बस्दै": 4488,
      "▁प्रावधान": 4489,
      "▁मगरले": 4490,
      "▁विद्युतीय": 4491,
      "▁समयदेखि": 4492,
      "▁द्वन्द": 4493,
      "▁स्वीकार": 4494,
      "▁झण्डै": 4495,
      "▁गाउँपालिकाले": 4496,
      "भरि": 4497,
      "▁३९": 4498,
      "▁चेतावनी": 4499,
      "▁संगी": 4500,
      "▁होस्": 4501,
      "रुवा": 4502,
      "मय": 4503,
      "▁झन्": 4504,
      "▁तर्क": 4505,
      "▁चढ": 4506,
      "▁सुनिश्चित": 4507,
      "▁पशुपति": 4508,
      "▁आउट": 4509,
      "▁स्वागत": 4510,
      "▁नवल": 4511,
      "▁पाउँ": 4512,
      "▁चो": 4513,
      "▁चित्र": 4514,
      "▁कल": 4515,
      "▁आयोगको": 4516,
      "▁हुँ": 4517,
      "▁जनतालाई": 4518,
      "▁शासन": 4519,
      "▁निवेदन": 4520,
      "▁टीका": 4521,
      "▁कञ्चन": 4522,
      "▁खेत": 4523,
      "▁कूल": 4524,
      "▁स्थानीयवासी": 4525,
      "▁इजरा": 4526,
      "▁उपयुक्त": 4527,
      "▁सन्दीप": 4528,
      "▁बेप": 4529,
      "परी": 4530,
      "▁समितिमा": 4531,
      "▁फूल": 4532,
      "▁पार्न": 4533,
      "▁टिकट": 4534,
      "▁भइरहेका": 4535,
      "▁२०७८": 4536,
      "स्वा": 4537,
      "▁४३": 4538,
      "▁हुन्छ,": 4539,
      "▁आफैँ": 4540,
      "▁वीरग": 4541,
      "▁आंशिक": 4542,
      "▁महेन्द्र": 4543,
      "ियर": 4544,
      "▁हल्का": 4545,
      "हरुसँग": 4546,
      "▁वायुको": 4547,
      "▁क्यान": 4548,
      "ौन": 4549,
      "▁५१": 4550,
      "▁लगानीकर्ता": 4551,
      "▁खतरा": 4552,
      "▁हेर्ने": 4553,
      "ी,": 4554,
      "▁उपकरण": 4555,
      "▁लिए": 4556,
      "▁क्रान्ति": 4557,
      "▁नागरिकको": 4558,
      "वाली": 4559,
      "▁फोहोर": 4560,
      "▁आधा": 4561,
      "▁काठमाडौंको": 4562,
      "▁राईले": 4563,
      "▁सुनको": 4564,
      "लेट": 4565,
      "▁(माओवादी": 4566,
      "▁खति": 4567,
      "डिङ": 4568,
      "ियम": 4569,
      "▁छलफलमा": 4570,
      "वर्ष": 4571,
      "▁वृ": 4572,
      "▁भरतपुर": 4573,
      "▁सदस्यीय": 4574,
      "▁न्यौपाने": 4575,
      "▁प्रधानन्यायाधीश": 4576,
      "▁बढाएको": 4577,
      "▁प्रकृति": 4578,
      "▁तथ्य": 4579,
      "▁थुप्रै": 4580,
      "▁माथ": 4581,
      "▁निकुञ्ज": 4582,
      "▁दशक": 4583,
      "▁आवेदन": 4584,
      "▁सुर्खेत": 4585,
      "▁केन्द्रले": 4586,
      "▁अभ्यास": 4587,
      "–२०": 4588,
      "▁महिनाको": 4589,
      "ियाँ": 4590,
      "▁लेखा": 4591,
      "ड्ड": 4592,
      "▁भोट": 4593,
      "▁झु": 4594,
      "▁चन्द": 4595,
      "▁छै": 4596,
      "▁विघटन": 4597,
      "▁बताउनुभएको": 4598,
      "▁निर्वाचनको": 4599,
      "▁रहेर": 4600,
      "▁४४": 4601,
      "▁लागु": 4602,
      "▁खतिवडा": 4603,
      "▁बदली": 4604,
      "▁२०७५": 4605,
      "▁अदालतको": 4606,
      "▁चरणको": 4607,
      "▁मानसिक": 4608,
      "▁परिच": 4609,
      "▁विश्ले": 4610,
      "▁वि.सं": 4611,
      "▁४८": 4612,
      "▁दस": 4613,
      "▁प्रा.लि": 4614,
      "प्रिय": 4615,
      "▁दौ": 4616,
      "थम": 4617,
      "७७": 4618,
      "▁गन्तव्य": 4619,
      "▁हप्ता": 4620,
      "▁मलेसिया": 4621,
      "▁घटनामा": 4622,
      "▁सफा": 4623,
      "▁गोली": 4624,
      "▁ठु": 4625,
      "्याउन": 4626,
      "▁जय": 4627,
      "खन": 4628,
      "▁हिउँ": 4629,
      "ंकर": 4630,
      "नित": 4631,
      "▁राष्ट्रियसभा": 4632,
      "जाइ": 4633,
      "▁फ्रा": 4634,
      "▁रोप": 4635,
      "▁मोड": 4636,
      "▁स्वर्ण": 4637,
      "राव": 4638,
      "▁थान": 4639,
      "▁प्रतियोगिताको": 4640,
      "रेको": 4641,
      "▁सही": 4642,
      "ेदारी": 4643,
      "▁आयोगका": 4644,
      "▁संसदमा": 4645,
      "प्प": 4646,
      "▁उत्प": 4647,
      "▁फेसबु": 4648,
      "▁रिट": 4649,
      "चीमा": 4650,
      "▁अफग": 4651,
      "▁हाजिर": 4652,
      "▁४६": 4653,
      "ाल,": 4654,
      "विरुद्धको": 4655,
      "र्पा": 4656,
      "भार": 4657,
      "▁विविध": 4658,
      "▁अभिनय": 4659,
      "▁पठा": 4660,
      "▁सदरमुकाम": 4661,
      "▁बेपत्ता": 4662,
      "▁नसक्दा": 4663,
      "स्को": 4664,
      "▁अवार्ड": 4665,
      "▁पछाडि": 4666,
      "ग्राही": 4667,
      "मुक्त": 4668,
      "्र्": 4669,
      "▁नम्बरको": 4670,
      "▁दुख": 4671,
      "▁मुक्त": 4672,
      "▁समयमै": 4673,
      "रामर्श": 4674,
      "▁दूतावास": 4675,
      "वानी": 4676,
      "दुई": 4677,
      "▁रुपियाँ": 4678,
      "▁द्वन्द्व": 4679,
      "राग": 4680,
      "▁बासिन्दा": 4681,
      "▁गर्द": 4682,
      "गरमा": 4683,
      "▁रूपैयाँ": 4684,
      "▁हिसाबले": 4685,
      "▁प्रा.लि.": 4686,
      "▁‘ए": 4687,
      ".५": 4688,
      "▁प्रतिनि": 4689,
      "▁सरुवा": 4690,
      "ज्ञानिक": 4691,
      "चार्ज": 4692,
      "▁देखाएको": 4693,
      "▁सीमित": 4694,
      "ेसँगै": 4695,
      "र्नु": 4696,
      "▁थालिएको": 4697,
      "▁दुरुपयोग": 4698,
      "▁लघु": 4699,
      "▁रिय": 4700,
      "▁शहर": 4701,
      "▁सङ्कलन": 4702,
      "शाली": 4703,
      "▁म्याद": 4704,
      "▁लगाइएको": 4705,
      "▁व्यापारी": 4706,
      "▁देखिने": 4707,
      "घर": 4708,
      "▁श्रेष्ठ,": 4709,
      "▁कदम": 4710,
      "र्घ": 4711,
      "क्ट": 4712,
      "▁कार्यान्वयनमा": 4713,
      "▁मुस्": 4714,
      "▁५२": 4715,
      "सुकै": 4716,
      "फि": 4717,
      "▁असन्तु": 4718,
      "▁संस्करण": 4719,
      "▁पालना": 4720,
      "नुपा": 4721,
      "३०": 4722,
      "▁एक्स": 4723,
      "▁अभिभाव": 4724,
      "▁लक्ष्मी": 4725,
      "न्थ": 4726,
      "▁निरा": 4727,
      "▁सुनस": 4728,
      "▁घण्टामा": 4729,
      "▁गरिसकेका": 4730,
      "▁खाद्य": 4731,
      "▁खि": 4732,
      "▁खारेज": 4733,
      "▁पूर्वी": 4734,
      "▁सम्पाद": 4735,
      "▁महाधिवेश": 4736,
      "कका": 4737,
      "▁वाम": 4738,
      "▁जडान": 4739,
      "▁खट": 4740,
      "वत": 4741,
      "सकेपछि": 4742,
      "कल्प": 4743,
      "▁प्रवद्र्": 4744,
      "▁कुलमान": 4745,
      "न्सर": 4746,
      "▁ढंगले": 4747,
      "▁पक्षले": 4748,
      "नुपातिक": 4749,
      "▁त्यस्ता": 4750,
      "कारका": 4751,
      "▁उपप्रमुख": 4752,
      "▁कामको": 4753,
      "▁केन्द्र)": 4754,
      "▁जमिन": 4755,
      "▁समूहका": 4756,
      "▁प्रबन्ध": 4757,
      "▁ते": 4758,
      "▁गाई": 4759,
      "हिल्यै": 4760,
      "▁सिरि": 4761,
      "▁-": 4762,
      "▁सडकको": 4763,
      "▁वि.सं.": 4764,
      "▁चाड": 4765,
      "▁मू": 4766,
      "▁मसा": 4767,
      "हरूसँग": 4768,
      "टीको": 4769,
      "लीले": 4770,
      "धीन": 4771,
      "गाउँ": 4772,
      "▁पानीको": 4773,
      "▁सेनाले": 4774,
      "▁मन्त्रालयमा": 4775,
      "▁माछा": 4776,
      "सनमा": 4777,
      "▁चीनले": 4778,
      "▁हालै": 4779,
      "▁यसपटक": 4780,
      "▁आयोजनामा": 4781,
      "▁राज्यको": 4782,
      "▁व्यक्तिले": 4783,
      "▁सुनुवाइ": 4784,
      "ियाली": 4785,
      "ेशन": 4786,
      "▁परामर्श": 4787,
      "▁क्वारेन्": 4788,
      "देख": 4789,
      "▁आगो": 4790,
      "▁युरोप": 4791,
      "▁बर": 4792,
      "▁पाइन्छ": 4793,
      "▁रमेश": 4794,
      "▁नेपालीमा": 4795,
      "▁क्षेत्रलाई": 4796,
      "उँछ": 4797,
      "▁विपद्": 4798,
      "भागमा": 4799,
      "▁जनकपुर": 4800,
      "▁बजेसम्म": 4801,
      "लोकन": 4802,
      "▁होट": 4803,
      "▁रोकिएको": 4804,
      "▁तथ्याङ्क": 4805,
      "▁रिज": 4806,
      "▁मन्दि": 4807,
      "ब्जा": 4808,
      "▁आयो,": 4809,
      "▁मूल्या": 4810,
      "▁चिया": 4811,
      "▁बाँड": 4812,
      "समिति": 4813,
      "▁विषयलाई": 4814,
      "ध्यापक": 4815,
      "▁भोज": 4816,
      "▁खटि": 4817,
      "टिल": 4818,
      "▁पाइने": 4819,
      "▁आइसोले": 4820,
      "▁आफु": 4821,
      "▁सभाको": 4822,
      "▁प्रवृत्ति": 4823,
      "भित्रै": 4824,
      "▁भ्या": 4825,
      "▁कमल": 4826,
      "▁उनीहरूलाई": 4827,
      "▁पत्ता": 4828,
      "▁बैंकका": 4829,
      "▁परिचय": 4830,
      "गोल": 4831,
      "▁जरि": 4832,
      "▁दर्जन": 4833,
      "▁ल्याइएको": 4834,
      "▁अस्पतालका": 4835,
      "प्टर": 4836,
      "▁समानुपातिक": 4837,
      "▁तलब": 4838,
      "▁गौर": 4839,
      "▁नायब": 4840,
      "▁कतै": 4841,
      "▁हेट": 4842,
      "▁म्यान": 4843,
      "▁स्वीकृति": 4844,
      "फर": 4845,
      "पोखरी,": 4846,
      "▁ज्ञवाली": 4847,
      "▁सेमि": 4848,
      "▁भोग": 4849,
      "▁सप्त": 4850,
      "ंकन": 4851,
      "▁गरिरह": 4852,
      "▁चौधरीले": 4853,
      "▁उड्ड": 4854,
      "वृद्धि": 4855,
      "▁भएमा": 4856,
      "▁ग्लो": 4857,
      "▁कार्यालयको": 4858,
      "▁घिसिङ": 4859,
      "▁अप्र": 4860,
      "▁मिल्ने": 4861,
      "▁विकासमा": 4862,
      "▁‘प्रचण्ड": 4863,
      "▁बौ": 4864,
      "▁रोकि": 4865,
      "ेटिभ": 4866,
      "ङ्गो": 4867,
      "▁रामचन्द्र": 4868,
      "धारा": 4869,
      "▁२०७७": 4870,
      "▁चल्छ": 4871,
      "▁दिशा": 4872,
      "छिन्": 4873,
      "टामा": 4874,
      "▁धनु": 4875,
      "▁विकासको": 4876,
      "्याल": 4877,
      "▁हुनुहुन्छ": 4878,
      "क्षी": 4879,
      "▁मुद्रा": 4880,
      "▁अवैध": 4881,
      "▁मनसुनी": 4882,
      "▁कार्यक्रमको": 4883,
      "▁बालिका": 4884,
      "साई": 4885,
      "▁नेपाललाइ": 4886,
      "▁संघका": 4887,
      "▁बढ्दो": 4888,
      "▁माल": 4889,
      "▁उदाहरण": 4890,
      "तक": 4891,
      "▁आगलागी": 4892,
      "▁४७": 4893,
      "▁इतिहास": 4894,
      "नीले": 4895,
      "▁गरियो": 4896,
      "ौं।": 4897,
      "खण्ड": 4898,
      "द्योग": 4899,
      "▁नेपाललाइभमा": 4900,
      "वार्ता": 4901,
      "▁अभिव्यक्ति": 4902,
      "▁प्रच": 4903,
      "▁पुस्ता": 4904,
      "▁पन्त": 4905,
      "▁साझेदारी": 4906,
      "▁दुबै": 4907,
      "ूट": 4908,
      "▁‘आ": 4909,
      "जस्तै": 4910,
      "▁सघा": 4911,
      "▁गल्": 4912,
      "▁सर्वाधिक": 4913,
      "गन": 4914,
      "▁दै": 4915,
      "▁आइरहेको": 4916,
      "घन": 4917,
      "▁समाजमा": 4918,
      "▁पुस्तक": 4919,
      "▁वर्षाको": 4920,
      "▁५६": 4921,
      "नुभएका": 4922,
      "▁त्यसो": 4923,
      "▁मसान्त": 4924,
      "▁फर्का": 4925,
      "▁विदेशमा": 4926,
      "▁उड्डयन": 4927,
      "▁आवास": 4928,
      "▁दफा": 4929,
      "▁तिम": 4930,
      "▁खेल्न": 4931,
      "बिर": 4932,
      "जनक": 4933,
      "किलो": 4934,
      "▁स्थल": 4935,
      "▁प्रतिपक्षको": 4936,
      "▁स्मरण": 4937,
      "▁कारवाही": 4938,
      "▁नगरपालिकामा": 4939,
      "▁विगतमा": 4940,
      "▁दूध": 4941,
      "▁बराम": 4942,
      "▁बनाए": 4943,
      "▁आधिका": 4944,
      "जसो": 4945,
      "▁समी": 4946,
      "▁एश": 4947,
      "▁जात": 4948,
      "▁सामना": 4949,
      "▁पत्रकारि": 4950,
      "▁एकल": 4951,
      "वाना": 4952,
      "▁सन्तोष": 4953,
      "▁हस्त": 4954,
      "▁कालोपत्र": 4955,
      "▁उसको": 4956,
      "▁पाण्डे": 4957,
      "▁बडो": 4958,
      "▁खुलेको": 4959,
      "▁४९": 4960,
      "▁इलाम": 4961,
      "▁उन्": 4962,
      "▁केन्द्रको": 4963,
      "डको": 4964,
      "▁अस्पतालको": 4965,
      "▁२०७६": 4966,
      "सस": 4967,
      "▁मूल्यमा": 4968,
      "▁दायित्व": 4969,
      "▁एकजना": 4970,
      "▁क्षेत्रीय": 4971,
      "▁महसुस": 4972,
      "▁तामाङ": 4973,
      "जात": 4974,
      "▁छ-": 4975,
      "▁पसल": 4976,
      "राले": 4977,
      "▁सत": 4978,
      "ारुढ": 4979,
      "▁वर्षसम्म": 4980,
      "▁रेग्": 4981,
      "▁भावना": 4982,
      "▁५३": 4983,
      "▁संस्थागत": 4984,
      "▁५४": 4985,
      "▁छिन्।": 4986,
      "▁समुद्रप": 4987,
      "▁उपसभा": 4988,
      "▁पर्न": 4989,
      "्म": 4990,
      "▁अप्": 4991,
      "सक्छ": 4992,
      "दरबार": 4993,
      "▁अग्": 4994,
      "▁नेताहरु": 4995,
      "▁मण्ड": 4996,
      "▁देखिन्छ।": 4997,
      "▁शाक्य": 4998,
      "ौली": 4999,
      "▁प्रथम": 5000,
      "▁स्वीकृत": 5001,
      "जुन": 5002,
      "▁डुब": 5003,
      "▁सत्तारुढ": 5004,
      "स्पेक्टर": 5005,
      "▁जर्म": 5006,
      "▁भएसँगै": 5007,
      "▁दीर्घ": 5008,
      "▁जोड्ने": 5009,
      "▁एण्ड": 5010,
      "राष्ट्रिय": 5011,
      "▁कठिन": 5012,
      "श्रम": 5013,
      "▁ल्याएर": 5014,
      "▁हुनसक्ने": 5015,
      "▁बरामद": 5016,
      "▁इन्जि": 5017,
      "पात": 5018,
      "▁कार्यमा": 5019,
      "▁अपा": 5020,
      "वद्ध": 5021,
      "▁अध्यादेश": 5022,
      "▁मजदुर": 5023,
      "नीको": 5024,
      "▁उभि": 5025,
      "वायु": 5026,
      "▁अत्यन्त": 5027,
      "▁स्कु": 5028,
      "▁पार्टीमा": 5029,
      "▁खण्डमा": 5030,
      "भ्र": 5031,
      "▁महानगरपालिकाले": 5032,
      "होला": 5033,
      "▁भारी": 5034,
      "▁पछ": 5035,
      "▁मेट": 5036,
      "▁उपाय": 5037,
      "▁लाल": 5038,
      "नाइटेड": 5039,
      "निया": 5040,
      "लाग": 5041,
      "▁बरा": 5042,
      "▁प्रारम्भिक": 5043,
      "▁उठा": 5044,
      "▁मोह": 5045,
      "बजार": 5046,
      "नीय": 5047,
      "▁पानीपोखरी,": 5048,
      "▁कार्यविधि": 5049,
      "▁खोला": 5050,
      "▁होम": 5051,
      "▁कित्ता": 5052,
      "▁शेर्पा": 5053,
      "▁प्रोत्सा": 5054,
      "▁विपक्षी": 5055,
      "▁महत्त्वपूर्ण": 5056,
      "▁नदीमा": 5057,
      "ितो": 5058,
      "▁ठहर": 5059,
      "▁(इन्": 5060,
      "▁पहिलोपटक": 5061,
      "▁शू": 5062,
      "रद": 5063,
      "▁बेन्चमा": 5064,
      "▁नगर्न": 5065,
      "▁इलाका": 5066,
      "▁ब्": 5067,
      "▁७२": 5068,
      "स्रोत": 5069,
      "▁बारा": 5070,
      "▁नभएर": 5071,
      "▁रुपन्देहीमा": 5072,
      "▁पेट्रोल": 5073,
      "▁ठाकुर": 5074,
      "▁हिमाली": 5075,
      "▁सकेका": 5076,
      "▁आधारभूत": 5077,
      "चर्चित": 5078,
      "हिरो": 5079,
      "▁परिवारका": 5080,
      "▁सूचनाको": 5081,
      "▁प्रकरणका": 5082,
      "▁कन्": 5083,
      "▁चाँड": 5084,
      "▁उत्पन्न": 5085,
      "▁जोडिएको": 5086,
      "भारत": 5087,
      "▁लागेर": 5088,
      "▁सुशासन": 5089,
      "▁धन्य": 5090,
      "क्सी": 5091,
      "▁सघाएको": 5092,
      "▁छ।’": 5093,
      "▁हाफ": 5094,
      "▁संस्थाले": 5095,
      "र्द्ध": 5096,
      "▁गौतमले": 5097,
      "ेनले": 5098,
      "▁बसो": 5099,
      "चे": 5100,
      "▁मौलिक": 5101,
      "शालामा": 5102,
      "क्कै": 5103,
      "▁बचत": 5104,
      "▁प्रतिनिध": 5105,
      "▁गाँ": 5106,
      "▁प्रसाद": 5107,
      "धिकार": 5108,
      "▁आइपुग": 5109,
      "शल": 5110,
      "▁सँगै": 5111,
      "▁मासिक": 5112,
      "▁रातो": 5113,
      "▁समूहको": 5114,
      "▁आया": 5115,
      "▁निर्वाह": 5116,
      "चोक": 5117,
      "ुरू": 5118,
      "▁महतो": 5119,
      "▁तयारीमा": 5120,
      "▁नेप्": 5121,
      "▁शुभकामना": 5122,
      "▁बहुचर्चित": 5123,
      "▁मेलम्": 5124,
      "▁हक": 5125,
      "मूलक": 5126,
      "केको": 5127,
      "▁नभएका": 5128,
      "▁सङ्गठ": 5129,
      "गमा": 5130,
      "▁कतार": 5131,
      "▁सुदृ": 5132,
      "▁स्थानीयले": 5133,
      "र्को": 5134,
      "▁भइसकेका": 5135,
      "चाइ": 5136,
      "▁हतियार": 5137,
      "सीय": 5138,
      "▁चाँ": 5139,
      "ह्रो": 5140,
      "▁बहि": 5141,
      "▁अस्पतालले": 5142,
      "▁सरकारसँग": 5143,
      "ानिस्तान": 5144,
      "क्षेत्र": 5145,
      "▁सुरू": 5146,
      "▁स्मार्ट": 5147,
      "रिङ": 5148,
      "▁भएकोले": 5149,
      "ल्पा": 5150,
      "विद्": 5151,
      "आफ्न": 5152,
      "▁पत्रिका": 5153,
      "▁न्यूनतम": 5154,
      "▁यसबाट": 5155,
      "पक्षीय": 5156,
      "▁लोकप्रिय": 5157,
      "▁पठाउन": 5158,
      "भेद": 5159,
      "▁युनाइटेड": 5160,
      "▁भण्डारीको": 5161,
      "प्रकाश": 5162,
      "▁बौद्ध": 5163,
      "▁खोजेको": 5164,
      "▁अक्सि": 5165,
      "▁बनि": 5166,
      "▁२०८१": 5167,
      "▁प्राथमिकतामा": 5168,
      "इरहेका": 5169,
      "पेन्द्र": 5170,
      "▁पाउ": 5171,
      "▁विचित्र": 5172,
      "▁जरिवाना": 5173,
      "▁वर्षपछि": 5174,
      "▁मिश्र": 5175,
      "▁७७": 5176,
      "▁सुरक्षाकर्मी": 5177,
      "▁खोटा": 5178,
      "▁उपलब्धि": 5179,
      "ँ,": 5180,
      "▁सक्छ।": 5181,
      "▁मर्मत": 5182,
      "ेवार": 5183,
      "▁१००": 5184,
      "▁संवाद": 5185,
      "▁त्र": 5186,
      "क्सा": 5187,
      "ाउँछ": 5188,
      "नेन्द्र": 5189,
      "▁खाली": 5190,
      "▁प्रतिनिधित्व": 5191,
      "द्रो": 5192,
      "▁मञ्च": 5193,
      "▁राख्दै": 5194,
      "▁औद्योग": 5195,
      "▁५७": 5196,
      "▁हटा": 5197,
      "▁शेख": 5198,
      "▁मक": 5199,
      "▁सेमिफाइ": 5200,
      "▁नेताले": 5201,
      "भाविक": 5202,
      "▁विमानस्थलमा": 5203,
      "▁पाँचौं": 5204,
      "▁दिनसम्म": 5205,
      "विन्द": 5206,
      "▁ढकालले": 5207,
      "▁रक्त": 5208,
      "▁माध्य": 5209,
      "▁संकट": 5210,
      "▁भत्ता": 5211,
      "▁भेटिएको": 5212,
      "▁आय": 5213,
      "मक": 5214,
      "क्कर": 5215,
      "▁१९९": 5216,
      "▁काराग": 5217,
      "▁आधुनिक": 5218,
      "रस": 5219,
      "▁(रा": 5220,
      "▁अन्तरि": 5221,
      "परा": 5222,
      "▁पठाइएको": 5223,
      "वीर": 5224,
      "▁दोषी": 5225,
      "▁पीडा": 5226,
      "्यता": 5227,
      "▁लामिछानेसँग": 5228,
      "▁बेचन": 5229,
      "▁जलवायु": 5230,
      "▁हावा": 5231,
      "▁बढेर": 5232,
      "▁टाइ": 5233,
      "गाई": 5234,
      "▁क्षेत्रबाट": 5235,
      "मण्ड": 5236,
      "▁ब्याटिङ": 5237,
      "याली": 5238,
      "▁तस्करलाई": 5239,
      "▁कहिल्यै": 5240,
      "▁विचित्रको": 5241,
      "▁व्यापक": 5242,
      "▁तस्बिर": 5243,
      "लाका": 5244,
      "▁समृद्ध": 5245,
      "ृति": 5246,
      "▁समीक्षा": 5247,
      "▁आउँदा": 5248,
      "झदारी": 5249,
      "▁अफगानिस्तान": 5250,
      "र्दै": 5251,
      "▁लैजाने": 5252,
      "▁आचार्यले": 5253,
      "▁अलि": 5254,
      "र्फत्": 5255,
      "▁प्रिम": 5256,
      "ेकै": 5257,
      "▁रहनेछ": 5258,
      "▁आधिकारिक": 5259,
      "▁शिवि": 5260,
      "▁इच्छा": 5261,
      "▁महरा": 5262,
      "स्पेक्टर)": 5263,
      "▁‘प": 5264,
      "▁बिजुली": 5265,
      "▁धन्यवाद": 5266,
      "▁चल्ने": 5267,
      "▁(इन्स्पेक्टर)": 5268,
      "▁बेल": 5269,
      "▁फ्र": 5270,
      "▁खड्कामाथि": 5271,
      "▁८५": 5272,
      "टाको": 5273,
      "चो": 5274,
      "▁करण": 5275,
      "विन": 5276,
      "▁यौन": 5277,
      "▁फुस्सा": 5278,
      "▁सेनाको": 5279,
      "▁२०४": 5280,
      "मणि": 5281,
      "▁जलविद्युत्": 5282,
      "▁उखानै": 5283,
      "▁क्रमश": 5284,
      "▁दरबार": 5285,
      "▁भारतबाट": 5286,
      "▁मौका": 5287,
      "▁टाढा": 5288,
      "▁मेगावाट": 5289,
      "▁बेलु": 5290,
      "फूल": 5291,
      "कल्पिक": 5292,
      "▁बम": 5293,
      "▁घिसिङबीच": 5294,
      "▁प्रकरणमा": 5295,
      "▁धनकु": 5296,
      "बो": 5297,
      "▁६४": 5298,
      "▁बेलामा": 5299,
      "▁कर्मचारीको": 5300,
      "▁घटनाको": 5301,
      "▁सूची": 5302,
      "खित": 5303,
      "▁खास": 5304,
      "▁निम": 5305,
      "प्रा": 5306,
      "▁‘प्रचण्ड’": 5307,
      "▁कोइरालाले": 5308,
      "पाठ": 5309,
      "पुरका": 5310,
      "▁शून्य": 5311,
      "▁चेक": 5312,
      "▁प्रि": 5313,
      "▁सालको": 5314,
      "▁भाषामा": 5315,
      "युद्ध": 5316,
      "▁कोरोनाको": 5317,
      "तीको": 5318,
      "▁मित्र": 5319,
      "▁प्रक्रियामा": 5320,
      "▁सुरुवात": 5321,
      "▁राव": 5322,
      "र्दा": 5323,
      "▁आउँछ": 5324,
      "▁गठबन्धनको": 5325,
      "▁स्वार्थ": 5326,
      "▁नाफा": 5327,
      "▁प्रतिपक्षी": 5328,
      "▁धरान": 5329,
      "▁नेपालीको": 5330,
      "▁चिसो": 5331,
      "▁आर्मी": 5332,
      "▁फ्": 5333,
      "धारित": 5334,
      "▁थिए,": 5335,
      "▁प्रतिवेदनमा": 5336,
      "▁टुंगो": 5337,
      "▁रेडियो": 5338,
      "भोग": 5339,
      "▁सरोकारवाला": 5340,
      "▁लाग्न": 5341,
      "▁वैज्ञानिक": 5342,
      "▁सञ्चालित": 5343,
      "▁५८": 5344,
      "▁प्रहरीका": 5345,
      "▁प्रविधिमन्त्री": 5346,
      "▁कीर्ति": 5347,
      "स्थायी": 5348,
      "भने": 5349,
      "पुग्": 5350,
      "▁ग्रहण": 5351,
      "▁चितवनको": 5352,
      "▁रगत": 5353,
      "त्वमा": 5354,
      "▁संस्थाको": 5355,
      "बहि": 5356,
      "समक्ष": 5357,
      "▁भारतका": 5358,
      "कालमा": 5359,
      ")ले": 5360,
      "▁वडामा": 5361,
      "▁उपत्यकामा": 5362,
      "▁किसानले": 5363,
      "धनको": 5364,
      "▁जसरी": 5365,
      "▁बुटवल": 5366,
      "सिए": 5367,
      ".१": 5368,
      "▁रनमा": 5369,
      "▁०७": 5370,
      "▁डेढ": 5371,
      "▁सिटी": 5372,
      "▁६१": 5373,
      "▁८२": 5374,
      "▁अमेरिकाको": 5375,
      "▁मङ्गल": 5376,
      "▁शाहीले": 5377,
      "▁नियन्त्रणका": 5378,
      "▁डट": 5379,
      "विहीन": 5380,
      "▁सवारीसा": 5381,
      "नुहु": 5382,
      "▁पोखरामा": 5383,
      "यले": 5384,
      "▁घट्": 5385,
      "▁क्यान्सर": 5386,
      "गणना": 5387,
      "▁गुणस्तर": 5388,
      "ाधीन": 5389,
      "▁सरस": 5390,
      "सीमा": 5391,
      "▁बजेदेखि": 5392,
      "▁६२": 5393,
      "▁इन्ड": 5394,
      "ह्न": 5395,
      "▁पुलि": 5396,
      "▁मानिसको": 5397,
      "▁‘उ": 5398,
      "▁विभाजन": 5399,
      "–४": 5400,
      "▁ह्या": 5401,
      "▁दिगो": 5402,
      "▁स्वयं": 5403,
      "संस्था": 5404,
      "▁तार": 5405,
      "▁सिने": 5406,
      "▁अभियोग": 5407,
      "ेषण": 5408,
      "▁महिलालाई": 5409,
      "▁मकवान": 5410,
      "▁सेवन": 5411,
      "▁गाह्रो": 5412,
      "▁सिंहदरबार": 5413,
      "खोला": 5414,
      "▁औद्योगिक": 5415,
      "▁अल्प": 5416,
      "▁असफल": 5417,
      "सनको": 5418,
      "ल्पना": 5419,
      "▁सुत्": 5420,
      "▁टोल": 5421,
      "्स": 5422,
      "▁लगाइ": 5423,
      "▁भीड": 5424,
      "▁सजिलो": 5425,
      "▁सञ्जालमा": 5426,
      "▁वि.सं.२०": 5427,
      "िकार": 5428,
      "भूति": 5429,
      "▁संकेत": 5430,
      "▁मनाइ": 5431,
      "▁बाध्यता": 5432,
      "क्कि": 5433,
      "▁बोकेर": 5434,
      "▁धनगढी": 5435,
      "▁सञ्चारमा": 5436,
      "▁पछिल्ला": 5437,
      "स्वास्थ्य": 5438,
      "▁प्रशासक": 5439,
      "▁बुझ्न": 5440,
      "▁तोकेको": 5441,
      "▁शरद": 5442,
      "तु": 5443,
      "जले": 5444,
      "▁प्राय": 5445,
      "▁५९": 5446,
      "▁सँग": 5447,
      "▁धनुषा": 5448,
      "▁हटाउन": 5449,
      "▁चोट": 5450,
      "▁परिवारलाई": 5451,
      "▁पुराना": 5452,
      "टका": 5453,
      "▁काभ्र": 5454,
      "▁मध्यम": 5455,
      "डाइ": 5456,
      "▁गरिदि": 5457,
      "ेजी": 5458,
      "▁सेट": 5459,
      "▁विश्वव्यापी": 5460,
      "▁रहन": 5461,
      "ट,": 5462,
      "▁सेवाग्राही": 5463,
      "▁नाटक": 5464,
      "▁अफ्र": 5465,
      "▁लेखेका": 5466,
      "▁उत्पादनमा": 5467,
      "▁चोरी": 5468,
      "▁रेक": 5469,
      "▁कैद": 5470,
      "▁चोक": 5471,
      "▁नपाउने": 5472,
      "▁रौ": 5473,
      "▁चलिरहेको": 5474,
      "▁ज्ञानेन्द्र": 5475,
      "▁त्यतिबेला": 5476,
      "▁जटिल": 5477,
      "लाइन्": 5478,
      "राष्ट्रपति": 5479,
      "▁चलाउन": 5480,
      "▁‘यो": 5481,
      "▁यसबारे": 5482,
      "▁शो": 5483,
      "▁समूहमा": 5484,
      "▁चलन": 5485,
      "रिक्त": 5486,
      "▁दिल्ली": 5487,
      "▁जुम्": 5488,
      "▁सकिनेछ": 5489,
      "▁घुम्": 5490,
      "▁कार्ड": 5491,
      "▁राज्यले": 5492,
      "▁संस्कृति,": 5493,
      "▁जोगाउन": 5494,
      "जुर": 5495,
      "ली,": 5496,
      "▁ज्य": 5497,
      "औष": 5498,
      "▁जिक": 5499,
      "▁वैकल्पिक": 5500,
      "▁अष्ट्र": 5501,
      "▁पढाइ": 5502,
      "▁चलाउने": 5503,
      "राइ": 5504,
      "▁वटै": 5505,
      "▁पुगि": 5506,
      "▁भिड": 5507,
      "▁रोकथा": 5508,
      "▁विज्ञप्ति": 5509,
      "▁बजेटमा": 5510,
      "▁आउँदै": 5511,
      "ालका": 5512,
      "▁बयान": 5513,
      "▁फैलिएको": 5514,
      "▁सक्छन्": 5515,
      "▁ताप": 5516,
      "▁मद्द": 5517,
      "▁मास्क": 5518,
      "▁भेटवार्ता": 5519,
      "▁अमेरिकामा": 5520,
      "▁यहाँको": 5521,
      "क्न": 5522,
      "्याएको": 5523,
      "▁निकालेको": 5524,
      "तया": 5525,
      "▁केश": 5526,
      "▁घिमिरेले": 5527,
      "▁क्रि": 5528,
      "मुना": 5529,
      "▁रेख": 5530,
      "मात्रै": 5531,
      "▁६६": 5532,
      "▁जलस्रोत": 5533,
      "▁माटो": 5534,
      "▁तोड": 5535,
      "▁कम्पनीका": 5536,
      "▁लक्षण": 5537,
      "▁नगरपालिका–१": 5538,
      "▁संख्यामा": 5539,
      "▁पर्ख": 5540,
      "▁ऐन,": 5541,
      "▁प्रवद्र्धन": 5542,
      "▁छुट्टै": 5543,
      "▁सदस्यमा": 5544,
      "फोन": 5545,
      "▁एन्ड": 5546,
      "▁पात्र": 5547,
      "▁पठाइ": 5548,
      "▁तल": 5549,
      "▁पुनले": 5550,
      "▁स्रोतले": 5551,
      "▁कूट": 5552,
      "▁वास्तविक": 5553,
      "▁चौकी": 5554,
      "रे": 5555,
      "▁प्रष्ट": 5556,
      "▁अर्जुन": 5557,
      "▁बोकेको": 5558,
      "▁स्कुल": 5559,
      "▁भत्का": 5560,
      "▁माथिल्लो": 5561,
      "▁ज्येष्ठ": 5562,
      "▁भागमा": 5563,
      "ठो": 5564,
      "▁मेसिन": 5565,
      "नन्": 5566,
      "ियत": 5567,
      "▁गभ": 5568,
      "▁ठेक": 5569,
      "▁अतिरिक्त": 5570,
      "▁बिरामीको": 5571,
      "▁खाद्या": 5572,
      "▁संघले": 5573,
      "▁आत": 5574,
      "▁विश्लेषण": 5575,
      "▁र,": 5576,
      "▁दावी": 5577,
      "यनको": 5578,
      "▁शिक्षा,": 5579,
      "▁बराबरी": 5580,
      "▁असु": 5581,
      "▁सीप": 5582,
      "▁कपडा": 5583,
      "▁मोर्चा": 5584,
      "▁बस्नेतले": 5585,
      "▁सम्पदा": 5586,
      "▁६७": 5587,
      "पान्तरण": 5588,
      "▁हाइड": 5589,
      "▁नेताहरू": 5590,
      "लम्बन": 5591,
      "▁रणनीति": 5592,
      "▁विकासमन्त्री": 5593,
      "▁रुपैयाँमा": 5594,
      "▁लागत": 5595,
      "▁फलफूल": 5596,
      "▁अस्थायी": 5597,
      "▁प्रकारका": 5598,
      "▁विद्यार्थीलाई": 5599,
      "▁खनालले": 5600,
      "▁बाँके": 5601,
      "गरमाथा": 5602,
      "▁सल्लाहकार": 5603,
      "▁समझदारी": 5604,
      "▁रह्यो": 5605,
      "▁‘नेपाल": 5606,
      "निर्भर": 5607,
      "▁६३": 5608,
      "▁वाग्": 5609,
      "▁अस्वी": 5610,
      "▁बिना": 5611,
      "▁गरिनेछ": 5612,
      "▁‘वि": 5613,
      "ङक": 5614,
      "▁आजै": 5615,
      "▁टेलिक": 5616,
      "▁विधा": 5617,
      "▁हुँदैछ": 5618,
      "▁कसैलाई": 5619,
      "▁पुग्": 5620,
      "▁मारि": 5621,
      "▁आन्दोलनमा": 5622,
      "▁छ’,": 5623,
      "▁सम्मा": 5624,
      "▁अन्": 5625,
      "▁प्रभावका": 5626,
      "▁जनाउँदै": 5627,
      "▁महाशाखाले": 5628,
      "ढु": 5629,
      "▁उत्त": 5630,
      "▁कक्ष": 5631,
      "▁तालिका": 5632,
      "यको": 5633,
      "स्ने": 5634,
      "▁शपथ": 5635,
      "खाना": 5636,
      "▁टेक": 5637,
      "जत": 5638,
      "▁बिग्र": 5639,
      "▁नेपालगन्ज": 5640,
      "▁प्रकाशमान": 5641,
      "र्देश": 5642,
      "▁चाहिँ": 5643,
      "द्रिक": 5644,
      "नाम": 5645,
      "न्यज": 5646,
      "▁रही": 5647,
      "▁तनाव": 5648,
      "रहने": 5649,
      "▁राखि": 5650,
      "▁कोरि": 5651,
      "▁काली": 5652,
      "मीण": 5653,
      "▁भरि": 5654,
      "न्ती": 5655,
      "▁यूएई": 5656,
      "▁‘ब": 5657,
      "ौल": 5658,
      "▁सन्तान": 5659,
      "ाउको": 5660,
      "▁कर्मचारीलाई": 5661,
      "मुखी": 5662,
      "मा,": 5663,
      "▁माधवकुमार": 5664,
      "कोण": 5665,
      "▁शुक्": 5666,
      "▁६८": 5667,
      "सेल": 5668,
      "▁विश्वका": 5669,
      "वासभा": 5670,
      "▁समुदायको": 5671,
      "▁छैनन्।": 5672,
      "▁जोखिममा": 5673,
      "▁अन्नपूर्ण": 5674,
      "▁मनाउने": 5675,
      "▁हुनाले": 5676,
      "▁जिकिर": 5677,
      "▁सहयोगी": 5678,
      "औषध": 5679,
      "न्डै": 5680,
      "▁विना": 5681,
      ".२": 5682,
      "स्वपा": 5683,
      "खुवासभा": 5684,
      "▁आसपा": 5685,
      "▁क्रियाकला": 5686,
      "▁चर्चित": 5687,
      "▁इन्द्र": 5688,
      "▁महर्जन": 5689,
      "▁निर्धारित": 5690,
      "▁बोल": 5691,
      "▁चेत": 5692,
      "न्ह": 5693,
      "▁हाइड्रो": 5694,
      "▁इन": 5695,
      "भक्त": 5696,
      "▁संगीत": 5697,
      "टारमा": 5698,
      "▁शाहले": 5699,
      "▁लम्साल": 5700,
      "▁हुनेछन्": 5701,
      "▁लघुव": 5702,
      "▁मात्रामा": 5703,
      "एच": 5704,
      "▁लाग्यो": 5705,
      "▁शंका": 5706,
      "ानै": 5707,
      "ौं,": 5708,
      "सिना": 5709,
      "▁प्रमाणपत्र": 5710,
      "▁पाल्": 5711,
      "▁सदस्यको": 5712,
      "जनमा": 5713,
      "▁हल": 5714,
      "▁उपभोग": 5715,
      "▁शिक्षण": 5716,
      "ूहिक": 5717,
      "▁जिम्मेवार": 5718,
      "र्नर": 5719,
      "बुझ": 5720,
      "▁जै": 5721,
      "लाही": 5722,
      "▁रात": 5723,
      "▁उड": 5724,
      "▁अस्ट्र": 5725,
      "ीक": 5726,
      "▁‘हामी": 5727,
      "रै": 5728,
      "▁हुनेमा": 5729,
      "▁गरिन्": 5730,
      "▁ग्रामीण": 5731,
      "धाज्ञा": 5732,
      "सिस": 5733,
      "क्षम": 5734,
      "▁चाप": 5735,
      "नीमा": 5736,
      "▁फिल्ममा": 5737,
      "▁?’": 5738,
      "▁सतर्क": 5739,
      "▁सरस्व": 5740,
      "▁कार्यक्रमलाई": 5741,
      "▁गुणस्तरीय": 5742,
      "▁९५": 5743,
      "▁जनमत": 5744,
      "किल": 5745,
      "▁७४": 5746,
      "▁समुद्रपारि": 5747,
      "र्की": 5748,
      "▁थिइन्।": 5749,
      "▁मुस्ता": 5750,
      "▁सगरमाथा": 5751,
      "▁म्याग्दी": 5752,
      "▁ज्व": 5753,
      "जरको": 5754,
      "▁दिनदेखि": 5755,
      "▁अंग": 5756,
      "सल": 5757,
      "▁नेपालगञ्ज": 5758,
      "▁गे": 5759,
      "▁कमजो": 5760,
      "नारायण": 5761,
      "▁नेप्से": 5762,
      "शेर": 5763,
      "▁रुकु": 5764,
      "▁वर्षे": 5765,
      "▁साहले": 5766,
      "▁रेकर्ड": 5767,
      "▁झन्डै": 5768,
      "पश्च": 5769,
      "नाल्": 5770,
      "▁व्यस्त": 5771,
      "▁निर्वाचनका": 5772,
      "▁(ने": 5773,
      "▁पार्टीलाई": 5774,
      "▁खाद्यान्न": 5775,
      "▁सामूहिक": 5776,
      "▁भ्रमणमा": 5777,
      "▁गएपछि": 5778,
      "▁असह": 5779,
      "▁लगाए": 5780,
      "वश्यक": 5781,
      "-२": 5782,
      "▁मासु": 5783,
      "▁महोत्त": 5784,
      "▁गौरव": 5785,
      "दायी": 5786,
      "▁७१": 5787,
      "बमोजिम": 5788,
      "▁महिलाले": 5789,
      "▁कुँ": 5790,
      "▁कन्ट": 5791,
      "▁आबद्ध": 5792,
      "मीको": 5793,
      "▁वन्यज": 5794,
      "▁अश": 5795,
      "▁परिवारको": 5796,
      "▁हमा": 5797,
      "ङ्ग्र": 5798,
      "▁लामाले": 5799,
      "▁बिता": 5800,
      "▁देखिए": 5801,
      "▁फाइनलमा": 5802,
      "▁दिएपछि": 5803,
      "▁नियमावली": 5804,
      "▁९९": 5805,
      "▁विद्रो": 5806,
      "३,": 5807,
      "▁पदक": 5808,
      "लेले": 5809,
      "▁ठेकेदार": 5810,
      "▁साउदी": 5811,
      "▁गोविन्द": 5812,
      "▁जान्छ": 5813,
      "▁भए।": 5814,
      "▁सत्": 5815,
      "/७": 5816,
      "वीकरण": 5817,
      "▁ग्लोबल": 5818,
      "▁विस्": 5819,
      "ंख": 5820,
      "यरमा": 5821,
      "नोद": 5822,
      "टी,": 5823,
      "▁बङ्ग": 5824,
      "▁घरको": 5825,
      "▁अध्यक्षमा": 5826,
      "िमी": 5827,
      "▁गायक": 5828,
      "▁सर्लाही": 5829,
      "▁गठबन्धनका": 5830,
      "क्की": 5831,
      "पार्क": 5832,
      "▁अत्यधिक": 5833,
      "▁श्रेष्ठको": 5834,
      "▁क्रमशः": 5835,
      "रका": 5836,
      "▁उल्ल": 5837,
      "▁देवको": 5838,
      "▁ठगी": 5839,
      "रा,": 5840,
      "▁अमेरिकाले": 5841,
      "बाबु": 5842,
      "वाको": 5843,
      "पुर,": 5844,
      "न्थे": 5845,
      "▁सन": 5846,
      "▁प्रवर्द्ध": 5847,
      "▁मानवीय": 5848,
      "▁इजराय": 5849,
      "▁निषेधाज्ञा": 5850,
      "▁अधिवेश": 5851,
      "▁प्रविधिको": 5852,
      "योग्य": 5853,
      "▁निस्": 5854,
      "क्रममा": 5855,
      "▁खनाल": 5856,
      "▁बताउनु": 5857,
      "▁ओलीलाई": 5858,
      "▁आकाश": 5859,
      "▁काल": 5860,
      "▁चिकित्सा": 5861,
      "सम्मका": 5862,
      "▁सहि": 5863,
      "▁सरकारबाट": 5864,
      "▁किनभने": 5865,
      "▁अर्थात": 5866,
      "सुब्बा": 5867,
      "▁२०७२": 5868,
      "▁टस": 5869,
      "▁केहि": 5870,
      "टले": 5871,
      "▁बाँध": 5872,
      "▁परे": 5873,
      "भित्रका": 5874,
      "▁दुर्गा": 5875,
      "▁पारेर": 5876,
      "▁दरले": 5877,
      "ल्स": 5878,
      "▁निर्मा": 5879,
      "▁वीरेन्द्र": 5880,
      "▁बैंकिङ": 5881,
      "▁धर": 5882,
      "▁नेपाल,": 5883,
      "▁अभियानमा": 5884,
      "हत्या": 5885,
      "म्बुले": 5886,
      "▁परम्परागत": 5887,
      "▁२०२०": 5888,
      "▁गुल्": 5889,
      "▁बाबुराम": 5890,
      "▁मङ्": 5891,
      "▁रहँदा": 5892,
      "▁नदिन": 5893,
      "▁मौद्रिक": 5894,
      "्यव": 5895,
      "▁प्रभु": 5896,
      "▁हुनेको": 5897,
      "▁बाटोमा": 5898,
      "▁दुईवटा": 5899,
      "▁लैजान": 5900,
      "▁सहायता": 5901,
      "▁टन": 5902,
      "▁अल्": 5903,
      "▁हातमा": 5904,
      "▁अप्ठ": 5905,
      "सेव": 5906,
      "▁नसकिने": 5907,
      "नी,": 5908,
      "▁बाली": 5909,
      "▁खासै": 5910,
      "▁विव": 5911,
      "▁खाता": 5912,
      "▁आउनु": 5913,
      "▁संघको": 5914,
      "▁गराए": 5915,
      "▁जाँदै": 5916,
      "रहँदा": 5917,
      "▁लामिछानेले": 5918,
      "▁दर्शन": 5919,
      "ताब": 5920,
      "्वाइ": 5921,
      "▁हाउ": 5922,
      "▁सरस्वती": 5923,
      "▁१,": 5924,
      "▁सिमा": 5925,
      "▁तरिकाले": 5926,
      "ङ्का": 5927,
      "षि": 5928,
      "▁अधिवक्ता": 5929,
      "आफ्नो": 5930,
      "▁आकर्षण": 5931,
      "▁एजेन्सी": 5932,
      "▁जितेर": 5933,
      "कारले": 5934,
      "ेकाले": 5935,
      "▁ढुवानी": 5936,
      "▁चालू": 5937,
      "धारणा": 5938,
      "▁शेरचन": 5939,
      "▁विनोद": 5940,
      "▁फैलि": 5941,
      "▁प्रकारको": 5942,
      "▁ठुलो": 5943,
      "▁बुद्धि": 5944,
      "ालगायत": 5945,
      "टिभ": 5946,
      "▁सूचीमा": 5947,
      ".४": 5948,
      "▁बढिरहेको": 5949,
      "▁सिक": 5950,
      "ेरु": 5951,
      "▁गुट": 5952,
      "सन्त": 5953,
      "▁सेवामा": 5954,
      "१०": 5955,
      "▁कार्यकालको": 5956,
      "▁हाँ": 5957,
      "▁कांग्रेस–": 5958,
      "▁संयन्त्र": 5959,
      "¥यो": 5960,
      "▁पत्": 5961,
      "ँदे": 5962,
      "▁जसको": 5963,
      "घरमा": 5964,
      "▁अनुहार": 5965,
      "▁ल्याएका": 5966,
      "्याग": 5967,
      "▁खत्री": 5968,
      "▁सुरुमा": 5969,
      "▁उपेन्द्र": 5970,
      "▁दिनेश": 5971,
      "जीवन": 5972,
      "▁सहसचिव": 5973,
      "▁व्यवसायीले": 5974,
      "▁चलेको": 5975,
      "्यारा": 5976,
      "ल्दा": 5977,
      "▁ऊर्जा,": 5978,
      "▁देशलाई": 5979,
      "▁कपि": 5980,
      "▁अक्सिजन": 5981,
      "▁एन्फा": 5982,
      "▁गर्छु": 5983,
      "▁७३": 5984,
      "▁नीतिगत": 5985,
      "▁अङ्क": 5986,
      "▁संस्थापक": 5987,
      "सीआर": 5988,
      "▁देख्न": 5989,
      "▁मनोन": 5990,
      "▁तिहार": 5991,
      "▁विशेषज्ञ": 5992,
      "मैत्री": 5993,
      "▁हुनुहु": 5994,
      "स्तरमा": 5995,
      "▁फर्किएका": 5996,
      "हीँ": 5997,
      "▁देवी": 5998,
      "▁खालको": 5999,
      "▁क्षमताको": 6000,
      "सम्ममा": 6001,
      "▁पर्सा": 6002,
      "▁बुझाइ": 6003,
      "▁युएई": 6004,
      "▁नारायणगढ": 6005,
      "▁आशंका": 6006,
      "▁गर्नेछन्": 6007,
      "▁उत्पादित": 6008,
      "▁बढुवा": 6009,
      "पर्छ": 6010,
      "▁डर": 6011,
      "▁बसि": 6012,
      "▁सुपर": 6013,
      "नुभन्दा": 6014,
      "▁बनाउँदै": 6015,
      "▁हैसिय": 6016,
      "▁चरि": 6017,
      "▁खुशी": 6018,
      "▁‘हामीले": 6019,
      "▁अलपत्र": 6020,
      "स्पद": 6021,
      "सूचक": 6022,
      "▁स्तरो": 6023,
      "▁अध्यक्षतामा": 6024,
      "▁६९": 6025,
      "▁मोहन": 6026,
      "▁खेलेको": 6027,
      "▁कर्मचारीले": 6028,
      "▁उत्साह": 6029,
      "▁केवल": 6030,
      "▁काठ": 6031,
      "▁केजी": 6032,
      "थान": 6033,
      "▁दृश्य": 6034,
      "डाँडा": 6035,
      "▁विभागको": 6036,
      "▁नष्ट": 6037,
      "▁चाहना": 6038,
      "▁थापा,": 6039,
      "▁हेरेर": 6040,
      "▁तल्लो": 6041,
      "▁अवधारणा": 6042,
      "▁ब्रि": 6043,
      "▁बरु": 6044,
      "▁अवलोकन": 6045,
      "▁अथ": 6046,
      "▁दृष्टिकोण": 6047,
      "▁पार्टीभित्रको": 6048,
      "क्सन": 6049,
      "▁प्रहरीलाई": 6050,
      "▁हकमा": 6051,
      "▁(क": 6052,
      "▁मुक्ति": 6053,
      "▁परिसर": 6054,
      "▁एसियाली": 6055,
      "▁नरेन्द्र": 6056,
      "▁थिएन।": 6057,
      "▁साथमा": 6058,
      "▁टाउको": 6059,
      "▁यसैबीच": 6060,
      "स्कृत": 6061,
      "▁हिँ": 6062,
      "▁खुवा": 6063,
      "▁सल": 6064,
      "▁स्टार": 6065,
      "त्तर": 6066,
      "▁रुपैयाँको": 6067,
      "▁विभेद": 6068,
      "▁क्रियाशील": 6069,
      "▁प्रोत्साहन": 6070,
      "▁भेटघाट": 6071,
      "जीकरण": 6072,
      "▁पाठक": 6073,
      "कां": 6074,
      "▁विश्वभर": 6075,
      "रल": 6076,
      "▁परा": 6077,
      "ंग्": 6078,
      "प्लव": 6079,
      "▁बिमा": 6080,
      "▁प्रतिनिधिसभाको": 6081,
      ")को": 6082,
      "▁छाया": 6083,
      "यमित": 6084,
      "▁लिखित": 6085,
      "▁दाजु": 6086,
      "टरमा": 6087,
      "र्भ": 6088,
      "’मा": 6089,
      "▁प्रतिवद्ध": 6090,
      "▁८४": 6091,
      "▁हैन": 6092,
      "सूची": 6093,
      "▁वृद्ध": 6094,
      "▁उपचारको": 6095,
      "▁सुदृढ": 6096,
      "▁विज्ञा": 6097,
      "पिट": 6098,
      "▁किसानलाई": 6099,
      "प्रेषण": 6100,
      "▁सिर": 6101,
      "▁रचना": 6102,
      "▁एयरलाइन्": 6103,
      "▁महासङ्घ": 6104,
      "▁जित्ने": 6105,
      "▁सुन्त": 6106,
      "▁छोटो": 6107,
      "स्थापित": 6108,
      "▁कांग्रेस–एमाले": 6109,
      "–द": 6110,
      "जय": 6111,
      "▁नपर्ने": 6112,
      "▁फाइनल": 6113,
      "▁ढोका": 6114,
      "▁स्तरोन्न": 6115,
      "▁पढ्न": 6116,
      "▁डिजाइ": 6117,
      "▁७८": 6118,
      "सनल": 6119,
      "▁लिइ": 6120,
      "▁विद्यार्थीको": 6121,
      "िनो": 6122,
      "▁८७": 6123,
      "बाहि": 6124,
      "▁हिरा": 6125,
      "▁लिगको": 6126,
      "ङ्कर": 6127,
      ".३": 6128,
      "▁धितो": 6129,
      "▁८८": 6130,
      "▁हङक": 6131,
      "▁कार्यालय,": 6132,
      "▁जनाए": 6133,
      "स्थापना": 6134,
      "▁पृथ्वीसुब्बा": 6135,
      "वेदनशील": 6136,
      "▁यतिबेला": 6137,
      "▁युनियन": 6138,
      "▁आत्मनिर्भर": 6139,
      "▁त्रिवि": 6140,
      "▁सुरेन्द्र": 6141,
      "▁प्रयोगकर्ता": 6142,
      "नेका": 6143,
      "▁पुनर्निर्माण": 6144,
      "▁प्राप्": 6145,
      "▁थिएँ": 6146,
      "हिने": 6147,
      "भग": 6148,
      "‍यो।": 6149,
      "▁अडान": 6150,
      "▁कार्यक्रमका": 6151,
      "हरूबाट": 6152,
      "▁मधु": 6153,
      "सङ्ख्या": 6154,
      "यात्रा": 6155,
      "काजी": 6156,
      "▁यात्रामा": 6157,
      "▁चौका": 6158,
      "▁बसोबास": 6159,
      "कर्षमा": 6160,
      "▁राय": 6161,
      "▁हाइ": 6162,
      "▁खेलेका": 6163,
      "भूमि": 6164,
      "ट्टै": 6165,
      "▁नवलपरा": 6166,
      "▁ठक्कर": 6167,
      "▁मङ्गलबार": 6168,
      "▁‘अहिले": 6169,
      "▁प्रशासनले": 6170,
      "▁मदन": 6171,
      "▁काउन्": 6172,
      "▁लम": 6173,
      "▁रुख": 6174,
      "▁प्रादेशिक": 6175,
      "▁नेताहरुले": 6176,
      "▁बित": 6177,
      "▁निर्णा": 6178,
      "▁बर्द": 6179,
      "-०": 6180,
      "▁महँग": 6181,
      "पाटी": 6182,
      "▁चर": 6183,
      "▁एल": 6184,
      "प्ने": 6185,
      "▁बनाउनु": 6186,
      "▁बाँच": 6187,
      "ेग": 6188,
      "▁भार": 6189,
      "▁जसका": 6190,
      "▁भू–": 6191,
      "र्ना": 6192,
      "▁कविता": 6193,
      "निङ": 6194,
      "ञ्चार": 6195,
      "िस": 6196,
      "मुक्ति": 6197,
      "▁दर्शक": 6198,
      "तडी": 6199,
      "▁गभर्नर": 6200,
      "▁“अ": 6201,
      "▁सफाइ": 6202,
      "▁जीवनमा": 6203,
      "▁मातह": 6204,
      "▁हुनसक्छ": 6205,
      "न्यास": 6206,
      "▁प्रेर": 6207,
      "ेलो": 6208,
      "▁सेवाको": 6209,
      "मुनि": 6210,
      "▁नपुग": 6211,
      "▁इटहरी": 6212,
      "▁स्मृति": 6213,
      "▁विद्यालयको": 6214,
      "▁विशाल": 6215,
      "▁किशोरी": 6216,
      "▁ल्याइ": 6217,
      "▁खुट्": 6218,
      "कस्": 6219,
      "गरानी": 6220,
      "▁पाठ्य": 6221,
      "▁प्रतिस्पर्धी": 6222,
      "▁संचालन": 6223,
      "▁सकिन्छ।": 6224,
      "▁स्क": 6225,
      "स्थलको": 6226,
      "▁काँ": 6227,
      "▁रोपनी": 6228,
      "ेरा": 6229,
      "▁माध्यमिक": 6230,
      "▁‘ड": 6231,
      "▁समस्यामा": 6232,
      "▁किसिमको": 6233,
      "▁भलि": 6234,
      "शास्त्र": 6235,
      "▁लिइएको": 6236,
      "वती": 6237,
      "▁दिइने": 6238,
      "▁बाघ": 6239,
      "▁जना,": 6240,
      "▁हस्तक्षेप": 6241,
      "▁मनमा": 6242,
      "▁नवीकरण": 6243,
      "▁प्रशासकीय": 6244,
      "▁प्रालि": 6245,
      "यू": 6246,
      "▁रेखा": 6247,
      "▁तापक्रम": 6248,
      "▁निर्णायक": 6249,
      "▁भयो,": 6250,
      "▁ठीक": 6251,
      "▁निगरानी": 6252,
      "▁मन्त्रिपरिषद्को": 6253,
      "▁इन्टरनेट": 6254,
      "▁नागरिकले": 6255,
      "▁नेट": 6256,
      "▁पोस्ट": 6257,
      "▁गर्नुपर्": 6258,
      "▁व्यवस्थापनमा": 6259,
      "▁श्रीमा": 6260,
      "▁कसैको": 6261,
      "फ्ट": 6262,
      "▁सैन्य": 6263,
      "▁आयु": 6264,
      "▁फिल्मको": 6265,
      "छो": 6266,
      "▁जनतामा": 6267,
      "▁खसेको": 6268,
      "▁रोहित": 6269,
      "▁प्रस्तु": 6270,
      "▁नदेख": 6271,
      "▁अस्वीकार": 6272,
      "▁संस्थान": 6273,
      "ारण": 6274,
      "▁७९": 6275,
      "पोर्": 6276,
      "परिवार": 6277,
      "▁जनसङ्ख्या": 6278,
      "▁मद्दत": 6279,
      "▁महानिर्देश": 6280,
      "सुन": 6281,
      "▁प्रतितो": 6282,
      "▁आरोहण": 6283,
      "▁विपरी": 6284,
      "चीन": 6285,
      "स्यौ": 6286,
      "▁अत्यावश्यक": 6287,
      "▁अष्ट्रेलिया": 6288,
      "▁फाउ": 6289,
      "▁प्रणालीमा": 6290,
      "▁८१": 6291,
      "▁९७": 6292,
      "▁काला": 6293,
      "▁८६": 6294,
      "▁खराब": 6295,
      "▁गरेकाले": 6296,
      "▁संविधानसभा": 6297,
      "▁चक्र": 6298,
      "▁मतगणना": 6299,
      "▁उत्कर्षमा": 6300,
      "▁सन्तुल": 6301,
      "▁च्याम्पियनसि": 6302,
      "्दैन": 6303,
      "ईमा": 6304,
      "▁निजा": 6305,
      "खबर": 6306,
      "▁९२": 6307,
      "▁बैतडी": 6308,
      "गल": 6309,
      "▁संस्थाका": 6310,
      "किएका": 6311,
      "▁दिनुभएको": 6312,
      "▁गराइएको": 6313,
      "▁बल्": 6314,
      "▁पर्यटकको": 6315,
      "जिङ": 6316,
      "▁अनुमो": 6317,
      "▁सके": 6318,
      "▁अह": 6319,
      "▁छाडेर": 6320,
      "▁क्षेत्रफल": 6321,
      "▁हराएको": 6322,
      "ित्तिकै": 6323,
      "▁सवारीसाधन": 6324,
      "▁८९": 6325,
      "▁मुलुकका": 6326,
      "▁आपत्ति": 6327,
      "▁बराबर": 6328,
      "▁ढिलाइ": 6329,
      "▁स्टा": 6330,
      "▁कुव": 6331,
      "ञ्जन": 6332,
      ".६": 6333,
      "▁बुबा": 6334,
      "सालले": 6335,
      "्चोक": 6336,
      "नलाई": 6337,
      "लिज": 6338,
      "▁बजेटको": 6339,
      "म्वा": 6340,
      "हिता": 6341,
      "▁गरिए": 6342,
      "▁एफ": 6343,
      "सी,": 6344,
      "▁मनोनयन": 6345,
      "▁सहजीकरण": 6346,
      "▁मानिन्छ": 6347,
      "▁अगुवा": 6348,
      "/०": 6349,
      "▁किरण": 6350,
      "वान्": 6351,
      "▁सापकोटाले": 6352,
      "प्लेजु": 6353,
      "ँचो": 6354,
      "▁सचेतक": 6355,
      "डामा": 6356,
      "▁९८": 6357,
      "▁हिन्द": 6358,
      "फाँ": 6359,
      "▁उता": 6360,
      "▁गल्ती": 6361,
      "यती": 6362,
      "▁धादि": 6363,
      "▁महानिरीक्षक": 6364,
      "▁बनाई": 6365,
      "ारू": 6366,
      "▁कैलाली": 6367,
      "▁एम्बुले": 6368,
      "▁विकसित": 6369,
      "टनको": 6370,
      "द्वय": 6371,
      "बाटो": 6372,
      "▁प्रतितोला": 6373,
      "▁हजारभन्दा": 6374,
      "▁विशि": 6375,
      "ारीरिक": 6376,
      "▁हेक्टर": 6377,
      "स्तार": 6378,
      "ट्स": 6379,
      "जिन": 6380,
      "▁परिवारले": 6381,
      "▁सदस्यले": 6382,
      "▁गरिब": 6383,
      "्रिक": 6384,
      "▁व्यवसायिक": 6385,
      "▁दिनअघि": 6386,
      "मलाई": 6387,
      "▁८३": 6388,
      "पश्चा": 6389,
      "पाइ": 6390,
      "▁रौतह": 6391,
      "▁ज्वरो": 6392,
      "▁अरब": 6393,
      "▁दे": 6394,
      "वत्": 6395,
      "र्सिलो": 6396,
      "पाल्चोक": 6397,
      "▁ट्वी": 6398,
      "▁मार्च": 6399,
      "▁नामक": 6400,
      "ौँ,": 6401,
      "छन्,": 6402,
      "▁आचार": 6403,
      "▁तीनै": 6404,
      "प्रसार": 6405,
      "▁सञ्चारमाध्यम": 6406,
      "▁अलग": 6407,
      "▁लाभा": 6408,
      "▁बगा": 6409,
      "छिन्द्र": 6410,
      "▁योजनामा": 6411,
      "▁दिइन्": 6412,
      "▁आफै": 6413,
      "▁विस्तृत": 6414,
      "▁जितेका": 6415,
      "▁संविधानले": 6416,
      "▁मेघ": 6417,
      "▁तट": 6418,
      "▁छात्र": 6419,
      "▁फ्रान्स": 6420,
      "▁भन्छन्": 6421,
      "▁मस्यौ": 6422,
      "हाव": 6423,
      "▁काठमाडौं,६": 6424,
      "▁माओवादीले": 6425,
      "▁जित्न": 6426,
      "▁छिट्टै": 6427,
      "▁नाच": 6428,
      "▁९१": 6429,
      "ेन्ड": 6430,
      "▁महारा": 6431,
      "▁नलाग": 6432,
      "▁जात्रा": 6433,
      "▁बिहानै": 6434,
      "▁सञ्चारकर्मी": 6435,
      "▁मिल": 6436,
      "शै": 6437,
      "दायक": 6438,
      "▁निकायले": 6439,
      "▁सिम": 6440,
      "▁बार्सिलो": 6441,
      "▁कुँवर": 6442,
      "▁शारीरिक": 6443,
      "▁प्रिमियर": 6444,
      "▁हारा": 6445,
      "▁मुटु": 6446,
      "▁तारा": 6447,
      "▁खोज्ने": 6448,
      "▁आकर्षक": 6449,
      "▁सशक्त": 6450,
      "▁ढुंग": 6451,
      "▁ब्याजदर": 6452,
      "▁लहर": 6453,
      "▁राष्ट्रपतिको": 6454,
      "▁सेत": 6455,
      "म्क": 6456,
      "▁भैरह": 6457,
      "▁मङ्सिर": 6458,
      "ानमा": 6459,
      "▁बैठकको": 6460,
      "गरीय": 6461,
      "सत": 6462,
      "▁समयसम्म": 6463,
      "माको": 6464,
      "क्षे": 6465,
      "न्थी": 6466,
      "▁नपाएको": 6467,
      "▁क्य": 6468,
      "विरोध": 6469,
      "▁कर्त": 6470,
      "▁चुर": 6471,
      "▁अभिनेता": 6472,
      "▁किरा": 6473,
      "▁संवेदनशील": 6474,
      "र्प": 6475,
      "▁दुर्ग": 6476,
      "▁मस्यौदा": 6477,
      "▁मावि": 6478,
      "जल": 6479,
      "▁२०१९": 6480,
      "▁समस्याको": 6481,
      "ब्या": 6482,
      "▁बाढीले": 6483,
      "सहितका": 6484,
      "▁अधिकतम": 6485,
      "मगर": 6486,
      "टीले": 6487,
      "▁सिन्धुपाल्चोक": 6488,
      "▁घाटा": 6489,
      "–दक्षिण": 6490,
      "वरी": 6491,
      "▁९३": 6492,
      "▁आकर्षित": 6493,
      "▁आत्महत्या": 6494,
      "▁कल्या": 6495,
      "▁पाल्पा": 6496,
      "▁खटिएको": 6497,
      "▁गाय": 6498,
      "▁इन्ध": 6499,
      "▁भू-": 6500,
      "▁परियार": 6501,
      "▁समाजको": 6502,
      "गण्डकी": 6503,
      "▁काठमाडौं–": 6504,
      "▁राखे": 6505,
      "▁लेखेको": 6506,
      "▁स्वास्थ्यमा": 6507,
      "जीको": 6508,
      "▁मुम्ब": 6509,
      "▁नक्सा": 6510,
      "▁प्याके": 6511,
      "▁घन्": 6512,
      "▁९६": 6513,
      "▁तिमी": 6514,
      "▁मन्दिरमा": 6515,
      "▁ताप्लेजु": 6516,
      "▁हाराहारी": 6517,
      "भल": 6518,
      "▁पारेका": 6519,
      "▁सुरुङ": 6520,
      "▁शौ": 6521,
      "▁भन्नु": 6522,
      "उड": 6523,
      "▁सवार": 6524,
      "▁रोगको": 6525,
      "▁दिन्छ": 6526,
      "▁प्रान्त": 6527,
      "▁हामीसँग": 6528,
      "▁कारागार": 6529,
      "▁पुगे": 6530,
      "▁युक्रे": 6531,
      "▁मदि": 6532,
      "स्तीमा": 6533,
      "लाग्": 6534,
      "▁शासक": 6535,
      "▁गइरहेको": 6536,
      "▁घरमै": 6537,
      "▁जंग": 6538,
      "▁ठोक्कि": 6539,
      "मित्व": 6540,
      "▁प्ले": 6541,
      "पल्ट": 6542,
      "कुरा": 6543,
      "्रु": 6544,
      "▁संखुवासभा": 6545,
      "▁बोर्डले": 6546,
      "▁अबको": 6547,
      "लगत्तै": 6548,
      "▁भने,‘": 6549,
      "▁मनि": 6550,
      "▁स्वास्थ्य,": 6551,
      "▁समारोहमा": 6552,
      "▁नमिल्": 6553,
      "▁प्रती": 6554,
      "▁गरिबी": 6555,
      "▁करी": 6556,
      "▁पत्रकारिता": 6557,
      "▁टोलीमा": 6558,
      "पर्व": 6559,
      "▁बढाइ": 6560,
      "–३": 6561,
      "▁अच": 6562,
      "▁असन्तुष्टि": 6563,
      "फोट": 6564,
      "▁सचिवालयले": 6565,
      "एकीकृत": 6566,
      "▁अनौ": 6567,
      "र्‍या": 6568,
      "▁बागलुङ": 6569,
      "▁तहले": 6570,
      "न्डर": 6571,
      "हुँदै": 6572,
      "▁गुमाएका": 6573,
      "▁समाजवाद": 6574,
      "▁साउन।": 6575,
      "वस्तु": 6576,
      "▁पराजु": 6577,
      "▁सुवेदी": 6578,
      "▁उत्पादनको": 6579,
      "▁शरीरमा": 6580,
      "▁महानगरीय": 6581,
      "▁पत्रमा": 6582,
      "▁पूर्वप्रधानमन्त्री": 6583,
      "▁फोरममा": 6584,
      "▁अन्तरिम": 6585,
      "▁संक्रमणको": 6586,
      "▁अस्ट्रेलिया": 6587,
      "▁योग्य": 6588,
      "हरुबाट": 6589,
      "्योति": 6590,
      "▁नेपालबाट": 6591,
      "▁लुका": 6592,
      "▁स्वच्छ": 6593,
      "▁नुवा": 6594,
      "▁बताइ": 6595,
      "▁५००": 6596,
      "▁जाजरको": 6597,
      "▁पाउँदा": 6598,
      "▁तिर": 6599,
      "मुग्": 6600,
      "▁नेकपाका": 6601,
      "▁शिशु": 6602,
      "▁संसदको": 6603,
      "▁छौं।": 6604,
      "ग्राम": 6605,
      "▁बनेर": 6606,
      "▁९४": 6607,
      "▁समायोजन": 6608,
      "▁प्रको": 6609,
      "▁नवीन": 6610,
      "▁बुझाएको": 6611,
      "▁न्यूज": 6612,
      "▁चरित्र": 6613,
      "▁बाह्य": 6614,
      "तर्फको": 6615,
      "▁बालबालिकालाई": 6616,
      "▁गोपाल": 6617,
      "▁‘त": 6618,
      "▁गुरुङ,": 6619,
      "ाराम": 6620,
      "▁टोलीको": 6621,
      "▁क्वा": 6622,
      "▁उदयपुर": 6623,
      "▁विरोधमा": 6624,
      "र्नुपर्ने": 6625,
      "▁सांसदले": 6626,
      "▁जनस्वास्थ्य": 6627,
      "▁संसद्मा": 6628,
      "▁गराउँदै": 6629,
      "ेन्टि": 6630,
      "▁उत्तरी": 6631,
      "▁छ”,": 6632,
      "ह्र": 6633,
      "▁बनाउनुपर्ने": 6634,
      "▁संयोजकत्वमा": 6635,
      "▁लुट": 6636,
      "▁प्रमाणित": 6637,
      "▁सिमेन्ट": 6638,
      "▁२०२२": 6639,
      "▁विशिष्ट": 6640,
      "▁शाल": 6641,
      "वर्क": 6642,
      "▁कुशल": 6643,
      "▁डाइ": 6644,
      "▁अभिभावक": 6645,
      "▁अमर": 6646,
      "▁पश्चिमी": 6647,
      "र्शी": 6648,
      "▁खडा": 6649,
      "हरू,": 6650,
      "▁लडा": 6651,
      "▁महासंघका": 6652,
      "▁बालुवाटारमा": 6653,
      "▁दक्ष": 6654,
      "▁गणना": 6655,
      "रहे": 6656,
      ")का": 6657,
      "थु": 6658,
      "▁सचिन": 6659,
      "पावर": 6660,
      "▁अनियमित": 6661,
      "▁परिसूचक": 6662,
      "▁नकारात्मक": 6663,
      "▁स्वामित्व": 6664,
      "िए": 6665,
      "▁बेनी": 6666,
      "▁रेड": 6667,
      "▁समाप्त": 6668,
      "▁थापाको": 6669,
      "्ने,": 6670,
      "▁उठाउने": 6671,
      "▁सुनाए": 6672,
      "▁युवराज": 6673,
      "▁रिहा": 6674,
      "▁विवेक": 6675,
      "▁नमुना": 6676,
      "▁कमजोरी": 6677,
      "▁आक्रो": 6678,
      "▁संचाल": 6679,
      "▁फरा": 6680,
      "▁तुलसी": 6681,
      "▁जुनसुकै": 6682,
      "▁नमा": 6683,
      "▁बुँदे": 6684,
      "▁कब्जा": 6685,
      "▁स्थिरताका": 6686,
      "डाको": 6687,
      "',": 6688,
      "▁निर्माणाधीन": 6689,
      "माथिको": 6690,
      "▁नलि": 6691,
      "▁विद्यादेवी": 6692,
      "▁कसुर": 6693,
      "▁बोहरा": 6694,
      "▁गगन": 6695,
      "▁इरान": 6696,
      "▁पूर्णिमा": 6697,
      "▁पौडेल,": 6698,
      "▁नैतिक": 6699,
      "दको": 6700,
      "१५": 6701,
      "भरी": 6702,
      "▁राखी": 6703,
      "▁निगमले": 6704,
      "▁छेउ": 6705,
      "▁बताइन्।": 6706,
      "्मण": 6707,
      "▁खेल्दै": 6708,
      "▁उचाइ": 6709,
      "▁विपरीत": 6710,
      "ग्रस्त": 6711,
      "लभ": 6712,
      "दलीय": 6713,
      "▁फोहर": 6714,
      "▁धनकुटा": 6715,
      "▁नेम्वा": 6716,
      "▁बेइ": 6717,
      "▁परेर": 6718,
      "एमई": 6719,
      "▁रहि": 6720,
      "ीका": 6721,
      "▁राजश्व": 6722,
      "▁वु": 6723,
      "तीले": 6724,
      "▁किशोर": 6725,
      "▁कल्याण": 6726,
      "▁नदीको": 6727,
      "▁थपिएका": 6728,
      "▁नभएपछि": 6729,
      "▁मोदी": 6730,
      "▁तालमेल": 6731,
      "▁देखिएपछि": 6732,
      "हरु,": 6733,
      "▁हजार,": 6734,
      "▁स्तर": 6735,
      "▁सरसफाइ": 6736,
      "▁विज्ञापन": 6737,
      "▁उहाँका": 6738,
      "प्रतिको": 6739,
      "▁अर्यालले": 6740,
      "▁शरदसिंह": 6741,
      "▁पर्वत": 6742,
      "▁नेपालीलाई": 6743,
      "जेल": 6744,
      "▁सधैँ": 6745,
      "▁कामका": 6746,
      "▁व्याख्या": 6747,
      "▁समाधानका": 6748,
      "▁आयोगमा": 6749,
      "▁वाइ": 6750,
      "अप": 6751,
      "▁फार्म": 6752,
      "▁खेलाडीले": 6753,
      "▁हाफमा": 6754,
      "ललाई": 6755,
      "▁शल्य": 6756,
      "▁विश्वमा": 6757,
      "▁सापकोटा": 6758,
      "▁घाँ": 6759,
      "▁गर्यो": 6760,
      "▁विद्यालयका": 6761,
      "ण्ठ": 6762,
      "▁नाइ": 6763,
      ".९": 6764,
      "▁तातो": 6765,
      ".७": 6766,
      "िरहेका": 6767,
      "▁जागिर": 6768,
      "▁पाटन": 6769,
      "▁इन्जिनियर": 6770,
      "▁लगभग": 6771,
      "्यारो": 6772,
      "▁राष्ट्रसंघ": 6773,
      "▁काय": 6774,
      "▁भलिबल": 6775,
      "▁नेपाल–": 6776,
      "▁खोलामा": 6777,
      "▁वीरगञ्ज": 6778,
      "टाएर": 6779,
      "रोहण": 6780,
      "पीडित": 6781,
      "▁प्रकट": 6782,
      "▁लेखिएको": 6783,
      "▁स्वस्थ": 6784,
      "▁कुर": 6785,
      "▁दिँदा": 6786,
      "▁बुधवार": 6787,
      "▁विद्यार्थीले": 6788,
      "▁ढिला": 6789,
      "▁इजलासले": 6790,
      "▁उपचारमा": 6791,
      "▁कुरालाई": 6792,
      "▁दीर्घकालीन": 6793,
      "▁क्रियाकलाप": 6794,
      "▁सधैं": 6795,
      "▁पञ्चा": 6796,
      "▁परिषद": 6797,
      "▁ग्रु": 6798,
      "िरहेको": 6799,
      "▁निवेद": 6800,
      "▁सस्तो": 6801,
      "▁भन्नेमा": 6802,
      "समध्ये": 6803,
      "▁आलु": 6804,
      "विका": 6805,
      "▁दोहोरो": 6806,
      "▁विप्लव": 6807,
      "▁भर्खर": 6808,
      "▁पारे": 6809,
      "▁रानी": 6810,
      "▁महानिर्देशक": 6811,
      "म्रो": 6812,
      "▁समयको": 6813,
      "▁पद्ध": 6814,
      "▁गर्न,": 6815,
      "▁सहुल": 6816,
      "▁दिवसको": 6817,
      "▁सद्": 6818,
      "डोर": 6819,
      "▁पीसीआर": 6820,
      "▁रुसी": 6821,
      "▁पर्नेमा": 6822,
      "▁जोशीले": 6823,
      "▁थारु": 6824,
      "बिया": 6825,
      "▁‘त्य": 6826,
      "▁ब्राजि": 6827,
      "▁मर्या": 6828,
      "▁बन्दा": 6829,
      "▁बिस्तार": 6830,
      "▁ओलीलाइ": 6831,
      "▁वसन्त": 6832,
      "▁कटौती": 6833,
      "ड्दै": 6834,
      "▁बर्दिया": 6835,
      "▁घर्ती": 6836,
      "▁पर्दैन": 6837,
      "टीका": 6838,
      "▁रोज": 6839,
      "▁लघुवित्त": 6840,
      "▁मन्त्रिपरिषद": 6841,
      "▁भिसा": 6842,
      "▁बैङ्क": 6843,
      "▁देखिन": 6844,
      "▁आएकी": 6845,
      "ानको": 6846,
      "▁सिल": 6847,
      "▁भेट्न": 6848,
      "▁शंकर": 6849,
      "▁बालुवाटार": 6850,
      "▁पुग्दा": 6851,
      "–६": 6852,
      "▁बेस": 6853,
      "▁चर्को": 6854,
      "▁निजामती": 6855,
      "▁कर्तव्य": 6856,
      "▁पाएपछि": 6857,
      "▁दिदी": 6858,
      "ीलाई": 6859,
      "▁वन्यजन्तु": 6860,
      "▁नमू": 6861,
      "▁स्ना": 6862,
      "बलमा": 6863,
      "▁तीमध्ये": 6864,
      "बाहिर": 6865,
      "▁सत्तरोहण": 6866,
      "▁सत्तरोहणसँगै": 6867,
      "जीले": 6868,
      "▁देशले": 6869,
      "▁(एकीकृत": 6870,
      "जाति": 6871,
      "▁बिरुवा": 6872,
      "▁भित्री": 6873,
      "▁अभिवृद्धि": 6874,
      "थ्य": 6875,
      "▁चीन–दक्षिण": 6876,
      "▁त्रा": 6877,
      "सेन": 6878,
      "▁सघ": 6879,
      "▁फ्या": 6880,
      "▁विस्थापित": 6881,
      "▁रिक्त": 6882,
      "▁भाउ": 6883,
      "▁तारि": 6884,
      "▁महानगरले": 6885,
      "▁उठाउन": 6886,
      "▁राई,": 6887,
      "▁शौच": 6888,
      "केट": 6889,
      "ख्य": 6890,
      "निय": 6891,
      "▁कृषक": 6892,
      "▁रुकुम": 6893,
      "ङ्कन": 6894,
      "मी,": 6895,
      "लेपछि": 6896,
      "ेन्ज": 6897,
      "शरण": 6898,
      "▁जनताका": 6899,
      "विपरी": 6900,
      "बन्द": 6901,
      "▁आमाको": 6902,
      "▁पूर्वमन्त्री": 6903,
      "▁मुल": 6904,
      "▁जला": 6905,
      "प्ती": 6906,
      "▁महेश": 6907,
      "▁महतले": 6908,
      "▁पूँजी": 6909,
      "▁काठमाण्ड": 6910,
      "▁धनी": 6911,
      "▁अथवा": 6912,
      "▁जोडेर": 6913,
      "▁पला": 6914,
      "▁अर्ध": 6915,
      "▁सांसदहरुले": 6916,
      "▁परिचयपत्र": 6917,
      "▁पक्षका": 6918,
      "आउ": 6919,
      "तल": 6920,
      "▁कृष्णप्रसाद": 6921,
      "▁नभएकाले": 6922,
      "ेडिकेट": 6923,
      "३१": 6924,
      "▁भेटमा": 6925,
      "▁छापा": 6926,
      "▁पेट्रोलियम": 6927,
      "▁पक्षको": 6928,
      "▁म्यु": 6929,
      "▁हो,’": 6930,
      "▁उपाध्या": 6931,
      "▁सागर": 6932,
      "बिच": 6933,
      "▁कामलाई": 6934,
      "धै": 6935,
      "▁अनुसार,": 6936,
      "▁सम्मानित": 6937,
      "▁शक्तिशाली": 6938,
      "▁“हा": 6939,
      "इलो": 6940,
      "▁कूटनीतिक": 6941,
      "▁भैरहवा": 6942,
      "▁किताब": 6943,
      "▁प्रतिवद्धता": 6944,
      "▁भनिन्छ": 6945,
      "▁छाप": 6946,
      "▁बेलुका": 6947,
      "▁खतिवडाले": 6948,
      "सम्मत": 6949,
      "ेडिकेटेड": 6950,
      "माया": 6951,
      "▁मी": 6952,
      "▁गिराव": 6953,
      "बार)": 6954,
      "▁डाय": 6955,
      "▁कानूनी": 6956,
      "भौ": 6957,
      "▁पूर्वानु": 6958,
      "▁उपराष्ट्रपति": 6959,
      "ोस्": 6960,
      "▁तिर्न": 6961,
      "▁सत्र": 6962,
      "▁उत्तिकै": 6963,
      "▁इंग्": 6964,
      "ल्नु": 6965,
      "▁प्रय": 6966,
      "▁नेताहरूले": 6967,
      "▁कसले": 6968,
      "▁खोजि": 6969,
      "▁प्रशंसा": 6970,
      "▁उमेरमा": 6971,
      "▁क्याम्पस": 6972,
      "▁अनुप": 6973,
      "खत": 6974,
      "श्रो": 6975,
      "▁जातीय": 6976,
      "▁चाँडै": 6977,
      "▁यथार्थ": 6978,
      "▁मूर्ति": 6979,
      "▁आचारसं": 6980,
      "▁जोडी": 6981,
      "फे": 6982,
      "▁भवनमा": 6983,
      "▁एसो": 6984,
      "▁यसो": 6985,
      "▁सिरहा": 6986,
      "▁बस्नेत": 6987,
      "ञ्चित": 6988,
      "▁अनुमोदन": 6989,
      "▁चाहेको": 6990,
      "▁अनिल": 6991,
      "–मुग्": 6992,
      "▁त्यहाँको": 6993,
      "▁दियो": 6994,
      "▁युग": 6995,
      "दर्शी": 6996,
      "▁सिजन": 6997,
      "लवस्तु": 6998,
      "▁सम्पादन": 6999,
      "▁टेलिभिजन": 7000,
      "श्रमिक": 7001,
      "▁चित्त": 7002,
      "▁थाइ": 7003,
      "▁अविश्वास": 7004,
      "▁शल्यक्रिया": 7005,
      "▁उपसभामुख": 7006,
      "▁नु": 7007,
      "▁कार्ययोजना": 7008,
      "▁त्यसअघि": 7009,
      "▁निर्माता": 7010,
      "▁सुरक्षाको": 7011,
      "▁एप": 7012,
      "▁सामेल": 7013,
      "▁जम": 7014,
      "▁सभ": 7015,
      "▁राख्नु": 7016,
      "▁शरीर": 7017,
      "▁दरबन्दी": 7018,
      "▁फराकिलो": 7019,
      "▁नभएसम्म": 7020,
      "▁बताएकी": 7021,
      "▁हटाउने": 7022,
      "▁गर्छ।": 7023,
      "▁निरी": 7024,
      "ुङ": 7025,
      "▁गतिमा": 7026,
      "▁नेपालीले": 7027,
      "▁अनाव": 7028,
      "▁हराउँदै": 7029,
      "▁योसँगै": 7030,
      "म्मद": 7031,
      "▁आ–": 7032,
      "▁सुवास": 7033,
      "▁लिनुपर्ने": 7034,
      "▁स्याङ्": 7035,
      "▁पेन": 7036,
      "▁मनोर": 7037,
      "▁गुमाएको": 7038,
      "▁अभिनेत्री": 7039,
      "▁अधिकारीको": 7040,
      "▁।'": 7041,
      "▁राजु": 7042,
      "िको": 7043,
      "टिस": 7044,
      "▁अरुण": 7045,
      "▁आक्रोश": 7046,
      "▁गर्‍यो": 7047,
      "उनुपर्छ": 7048,
      "▁क्षतिपूर्ति": 7049,
      "▁सक्षम": 7050,
      "ंदै": 7051,
      "एमा": 7052,
      "▁त्यसरी": 7053,
      "्नुपर्ने": 7054,
      "▁बू": 7055,
      "वारिक": 7056,
      "▁एक्लै": 7057,
      "वित": 7058,
      "▁तामाङले": 7059,
      "▁मोरङ": 7060,
      "षाध्यक्ष": 7061,
      "▁मान्": 7062,
      "▁हिन्दू": 7063,
      "▁जसलाई": 7064,
      "▁सिँचाइमन्त्री": 7065,
      "▁मनाउन": 7066,
      "▁जोडिएका": 7067,
      "▁डिस्": 7068,
      "▁खपत": 7069,
      "▁पुगेपछि": 7070,
      "▁गाउँका": 7071,
      "थर": 7072,
      "▁ष": 7073,
      "महा": 7074,
      "▁पूरै": 7075,
      "▁रोजगारीमा": 7076,
      "▁अगाडी": 7077,
      "▁संस्थामा": 7078,
      "▁कुमारी": 7079,
      "मशेर": 7080,
      "▁खाँ": 7081,
      "▁संस्कार": 7082,
      "▁मकै": 7083,
      "▁स्वदेशी": 7084,
      "अध्यक्ष": 7085,
      "▁कुकुर": 7086,
      "▁करीब": 7087,
      "▁निर्देशिका": 7088,
      "▁बङ्गलादेश": 7089,
      "▁कँ": 7090,
      "▁कार्यद": 7091,
      "▁गीतमा": 7092,
      "▁गतेको": 7093,
      "▁भट्टले": 7094,
      "▁उपनिर्वाच": 7095,
      "▁अभावमा": 7096,
      "▁परिक": 7097,
      "▁२०१८": 7098,
      "▁उका": 7099,
      "▁गर्नुपर्नेमा": 7100,
      "▁लाइस": 7101,
      "▁गर्छन्।": 7102,
      "▁बृह": 7103,
      "▁चीनमा": 7104,
      "▁मिलाउन": 7105,
      "▁देशभरका": 7106,
      "▁लमजु": 7107,
      "वटै": 7108,
      "▁पूर्वानुमान": 7109,
      "▁पुर्‍याउने": 7110,
      "▁सुवेदीले": 7111,
      "▁हिस्सा": 7112,
      "▁कम्पनीलाई": 7113,
      "▁बाइड": 7114,
      "▁चाहन्छु": 7115,
      "▁उत्पादक": 7116,
      "▁बिरामीलाई": 7117,
      "▁बढाइएको": 7118,
      "▁थियौं": 7119,
      "▁काँग्रेसका": 7120,
      "▁कुराको": 7121,
      "▁(ए": 7122,
      "ोषण": 7123,
      "ुअ": 7124,
      "▁एनआर": 7125,
      "▁समृद्धिको": 7126,
      "▁लगत्तै": 7127,
      "▁कार्यालयबाट": 7128,
      "▁गठबन्धनमा": 7129,
      "▁महामारीको": 7130,
      "▁विपन्न": 7131,
      "▁आजदेखि": 7132,
      "कस्मिक": 7133,
      "ेसि": 7134,
      "▁निमित्त": 7135,
      "र्खा": 7136,
      "▁पोष्ट": 7137,
      "▁उम्मेदवारको": 7138,
      "▁मैत्री": 7139,
      "▁सुत्के": 7140,
      "▁लगानीमा": 7141,
      "किन": 7142,
      "▁त्यहाँका": 7143,
      "▁फेसबुक": 7144,
      "▁केशव": 7145,
      "▁दूरी": 7146,
      "▁सम्पर्कमा": 7147,
      "▁सेल्": 7148,
      "▁शृ": 7149,
      "जाको": 7150,
      "सनिक": 7151,
      "▁२०२४": 7152,
      "▁‘ज": 7153,
      "▁कोठामा": 7154,
      "▁पावर": 7155,
      "▁हुनुभएको": 7156,
      "▁सम्भावित": 7157,
      "▁घिमिरे": 7158,
      "भित्रको": 7159,
      "म्बार": 7160,
      "▁प्रायः": 7161,
      "▁२०७३": 7162,
      "ईको": 7163,
      "▁श्रे": 7164,
      "▁टेक्": 7165,
      "▁रङ्ग": 7166,
      "सतमा": 7167,
      "▁एकीकरण": 7168,
      "▁महामारीका": 7169,
      "सक्नु": 7170,
      "▁महिनादेखि": 7171,
      "▁ज्ञापन": 7172,
      "▁गावि": 7173,
      "वास्ता": 7174,
      "▁त्यसबेला": 7175,
      "▁अभियोगमा": 7176,
      "मैले": 7177,
      "▁उम": 7178,
      "▁दाइ": 7179,
      "▁अफ्रिका": 7180,
      "▁ग्यास": 7181,
      "▁कागजात": 7182,
      "▁नराम": 7183,
      "▁जसमध्ये": 7184,
      "लेन्द्र": 7185,
      "िल्ली": 7186,
      "▁पेशा": 7187,
      "▁रहँदै": 7188,
      "राही": 7189,
      "▁अंकले": 7190,
      "▁अटो": 7191,
      "▁गरेमा": 7192,
      "▁गिरावट": 7193,
      "भियोग": 7194,
      "▁घटनास्थल": 7195,
      "▁शौचालय": 7196,
      "गृह": 7197,
      "▁गर्थे": 7198,
      "▁हेटौं": 7199,
      "ेलिकप्टर": 7200,
      "▁अनावश्यक": 7201,
      "▁आवत": 7202,
      "▁परीक्षणका": 7203,
      "▁ओभर": 7204,
      "▁निवासी": 7205,
      "▁बेड": 7206,
      "▁लेखक": 7207,
      "▁घरबाट": 7208,
      "▁साब": 7209,
      "निस": 7210,
      "▁सिन्धुली": 7211,
      "पुग्दा": 7212,
      "▁प्रकोप": 7213,
      "▁आप्र": 7214,
      "▁कल्पना": 7215,
      "▁सडकखण्ड": 7216,
      "▁लगेर": 7217,
      "▁रत्न": 7218,
      "▁आकस्मिक": 7219,
      "▁स्रोतका": 7220,
      "▁सञ्चालनका": 7221,
      "▁पर्दछ": 7222,
      "भागका": 7223,
      "छ,": 7224,
      "▁सवाल": 7225,
      "▁खिच": 7226,
      "▁पदार्थको": 7227,
      "▁किसानको": 7228,
      "फास": 7229,
      "▁बद्री": 7230,
      "▁वर्षभित्र": 7231,
      "▁रहन्छ": 7232,
      "▁नेताको": 7233,
      "▁सेमिफाइनलमा": 7234,
      "▁कुवेत": 7235,
      "ारोपण": 7236,
      "निकी": 7237,
      "▁एकको": 7238,
      "▁फेर": 7239,
      "▁हल्ला": 7240,
      "▁सेतो": 7241,
      "पार्": 7242,
      "▁व्र": 7243,
      "▁पारिवारिक": 7244,
      "▁शुद्ध": 7245,
      "▁निर्देशनालय": 7246,
      "▁स्याउ": 7247,
      "▁प्रदू": 7248,
      "▁नोट": 7249,
      "▁राशि": 7250,
      ".८": 7251,
      "▁हेलिकप्टर": 7252,
      "▁गिरी": 7253,
      "▁उहाँलाई": 7254,
      "▁पटकपटक": 7255,
      "▁वि.सं.२०७": 7256,
      "▁ट्रक": 7257,
      "▁वर": 7258,
      "▁मेरा": 7259,
      "▁टुंग": 7260,
      "▁पोलि": 7261,
      "▁परिण": 7262,
      "▁उसलाई": 7263,
      "▁प्रशासनिक": 7264,
      "ेन्टिले": 7265,
      "▁चाहने": 7266,
      "▁तै": 7267,
      "▁हुने,": 7268,
      "▁अस्ति": 7269,
      "▁बेहो": 7270,
      "▁शुक्रवार": 7271,
      "▁एकपटक": 7272,
      "▁पर्दाफास": 7273,
      "▁‘ट्र": 7274,
      "▁सहकार्यमा": 7275,
      "▁ओपन": 7276,
      "▁ज्ञवालीले": 7277,
      "▁रेमि": 7278,
      "▁महाशाखाका": 7279,
      "स्ति": 7280,
      "▁जन्मि": 7281,
      "▁जग्गाको": 7282,
      "धर": 7283,
      "ँचा": 7284,
      "▁छनौ": 7285,
      "▁पाइप": 7286,
      "▁गर्मी": 7287,
      "▁संसद्को": 7288,
      "केका": 7289,
      "▁उपमहा": 7290,
      "दले": 7291,
      "वधि": 7292,
      "जका": 7293,
      "▁साय": 7294,
      "▁गोलको": 7295,
      "▁खटिएका": 7296,
      "▁जाहे": 7297,
      "▁अर्जेन्": 7298,
      "▁कँडेल": 7299,
      "▁उपमे": 7300,
      "▁राजेश": 7301,
      "▁पोल": 7302,
      "▁साथै,": 7303,
      "▁नदिएको": 7304,
      "▁भएकोमा": 7305,
      "तन": 7306,
      "▁जनयुद्ध": 7307,
      "▁प्रचारप्रसार": 7308,
      "▁गयो": 7309,
      "▁श्याम": 7310,
      "▁गिरीले": 7311,
      "▁महाकाली": 7312,
      "▁एपि": 7313,
      "▁आन्दोलनको": 7314,
      "▁ईश्वर": 7315,
      "▁रामबहादुर": 7316,
      "▁टोलीका": 7317,
      "▁पौडेलको": 7318,
      "ज,": 7319,
      "▁टिमले": 7320,
      "▁उच्चस्तरीय": 7321,
      "▁रिलिज": 7322,
      "रोग": 7323,
      "▁महासंघले": 7324,
      "दत्त": 7325,
      "हको": 7326,
      "▁वस्तुको": 7327,
      "लम्प": 7328,
      "▁सुरक्षाका": 7329,
      "ख्रा": 7330,
      "▁कालि": 7331,
      "बलको": 7332,
      "▁श्रीमान्": 7333,
      "▁सकिएपछि": 7334,
      "▁झनै": 7335,
      "म्की": 7336,
      "विपरीत": 7337,
      "काउ": 7338,
      "▁बोल्न": 7339,
      "▁सतह": 7340,
      "वमा": 7341,
      "▁उद्योग,": 7342,
      "पन्थी": 7343,
      "▁बढीको": 7344,
      "जगार": 7345,
      "िकरण": 7346,
      "▁(ज": 7347,
      "▁हेरि": 7348,
      "▁परिमा": 7349,
      "▁नारायणगढ–मुग्": 7350,
      "ण्डर": 7351,
      "ैमा": 7352,
      "▁संक्रमणबाट": 7353,
      "▁हुँदैन।": 7354,
      "पल": 7355,
      "▁बिल": 7356,
      "नात्मक": 7357,
      "▁संविधानमा": 7358,
      "▁फाइल": 7359,
      "कीय": 7360,
      "▁आयोजनाले": 7361,
      "▁थपिएको": 7362,
      "▁राजकुमार": 7363,
      "▁लिँदै": 7364,
      "▁कोरोनाभाइ": 7365,
      "▁भनिन्": 7366,
      "▁मेलम्ची": 7367,
      "▁अर्जेन्टि": 7368,
      "▁समुदायका": 7369,
      "▁लिटर": 7370,
      "▁सतर्कता": 7371,
      "▁देखेर": 7372,
      "िनको": 7373,
      "▁उन्मुक्ति": 7374,
      "किएको": 7375,
      "▁जानुपर्ने": 7376,
      "▁अनुकूल": 7377,
      "▁लाग्दा": 7378,
      "▁भानु": 7379,
      "▁माझ": 7380,
      "▁पारिश्रमिक": 7381,
      "▁नमूना": 7382,
      "▁प्राधिकरणको": 7383,
      "ेडे": 7384,
      "लिम": 7385,
      "▁त्याग": 7386,
      "▁खालका": 7387,
      "▁पुग्यो": 7388,
      "▁समाजवादीका": 7389,
      "▁शालिक": 7390,
      "▁नमिल्ने": 7391,
      "▁ट्रम्पले": 7392,
      "▁एम्बुलेन्स": 7393,
      "▁पैदल": 7394,
      "▁चाहिने": 7395,
      "▁आयुक्त": 7396,
      "▁हुम्": 7397,
      "▁भेन्टिले": 7398,
      "्यानल": 7399,
      "▁होइन।": 7400,
      "▁मार्": 7401,
      "▁मागेको": 7402,
      "▁विहान": 7403,
      "▁२०२१": 7404,
      "▁तिनी": 7405,
      "ब्बर": 7406,
      "▁उपहार": 7407,
      "▁अनुभूति": 7408,
      "मन्त्र": 7409,
      "▁बन्यो": 7410,
      "▁मनाङ": 7411,
      "▁हिन्दु": 7412,
      "▁निष्पक्ष": 7413,
      "न्नत": 7414,
      "▁ब्रान्ड": 7415,
      "▁फौ": 7416,
      "▁अधिकारको": 7417,
      "▁परिवर्तनको": 7418,
      "▁जग्गामा": 7419,
      "▁साझेदार": 7420,
      "पालन": 7421,
      "▁तालि": 7422,
      "▁सहितको": 7423,
      "▁मिले": 7424,
      "▁छक्का": 7425,
      "सीका": 7426,
      "▁अधिकारी,": 7427,
      "▁मेट्रिक": 7428,
      "▁दिशामा": 7429,
      "▁बन्ध": 7430,
      "याको": 7431,
      "▁चरा": 7432,
      "▁त्यसकारण": 7433,
      "▁प्रणालीको": 7434,
      "▁इले": 7435,
      "विना": 7436,
      "▁देखियो": 7437,
      "वृ": 7438,
      "▁बालबालिकाको": 7439,
      "सायी": 7440,
      "▁ट्रान्स": 7441,
      "▁बिज": 7442,
      "▁अपनाउन": 7443,
      "▁खेलबाट": 7444,
      ",”": 7445,
      "▁झड": 7446,
      "▁बर्खा": 7447,
      "▁तिवारी": 7448,
      "▁गर्भ": 7449,
      "▁रसु": 7450,
      "▁सद्भाव": 7451,
      "द्वन्द": 7452,
      "▁सकेनन्": 7453,
      "▁पठन": 7454,
      "▁पह": 7455,
      "▁कुटपिट": 7456,
      "▁घोराही": 7457,
      "▁साविक": 7458,
      "▁पारी": 7459,
      "▁दान": 7460,
      "नेश्वर": 7461,
      "▁पहाड": 7462,
      "▁अस्थ": 7463,
      "▁दोल": 7464,
      "▁उद्योगी": 7465,
      "▁देखिँदैन": 7466,
      "▁एपी": 7467,
      "▁हप्": 7468,
      "दित": 7469,
      "▁दीपेन्द्र": 7470,
      "▁डिसे": 7471,
      "▁गर्दछन्": 7472,
      "▁किनकि": 7473,
      "▁गराउ": 7474,
      "ङ्गले": 7475,
      "स्टि": 7476,
      "▁चट्या": 7477,
      "म्स": 7478,
      "एनए": 7479,
      "▁भेटिएका": 7480,
      "▁लागी": 7481,
      "▁भविष्यमा": 7482,
      "चाह": 7483,
      "ेलको": 7484,
      "▁हृ": 7485,
      "लाम": 7486,
      "▁लगिएको": 7487,
      "म्बू": 7488,
      "▁रमाइलो": 7489,
      "▁राष्ट्रपतिले": 7490,
      "▁रद्द": 7491,
      "शेष": 7492,
      "▁आयोजनाका": 7493,
      "▁उनकी": 7494,
      "▁तपाईंको": 7495,
      "▁मानिसले": 7496,
      "▁घटेर": 7497,
      "▁शिला": 7498,
      "▁प्राध्यापक": 7499,
      "▁राप्ती": 7500,
      "▁प्रयोगमा": 7501,
      "ालु": 7502,
      "ण्डित": 7503,
      "▁सिनेमा": 7504,
      "▁पक्का": 7505,
      "▁धेरैले": 7506,
      "पाले": 7507,
      "▁निषेध": 7508,
      "▁महाधिवेशनमा": 7509,
      "▁पत्नी": 7510,
      "गोलिक": 7511,
      "▁द्वि": 7512,
      "▁हास्य": 7513,
      "▁कपिलवस्तु": 7514,
      "धनमा": 7515,
      "ञ्चल": 7516,
      "▁ऋषि": 7517,
      "हिँ": 7518,
      "▁चर्चामा": 7519,
      "▁पार्क": 7520,
      "▁मल्ल": 7521,
      "▁रासस": 7522,
      "▁फैला": 7523,
      "फर्म": 7524,
      "▁स्वतन्त्रता": 7525,
      "▁कार्यदल": 7526,
      "▁खेलाडीको": 7527,
      "▁सजिलै": 7528,
      "▁कोषाध्यक्ष": 7529,
      "▁अदालतका": 7530,
      "▁परिणत": 7531,
      "▁लिई": 7532,
      "▁अशोक": 7533,
      "▁गुमाएर": 7534,
      "▁दिएकी": 7535,
      "▁बजारको": 7536,
      "▁कुखु": 7537,
      "▁नगरि": 7538,
      "▁लिगमा": 7539,
      "▁ड्र": 7540,
      "अधिकार": 7541,
      "▁प्रत्या": 7542,
      "▁झो": 7543,
      "डा,": 7544,
      "▁सर्वे": 7545,
      "▁उस्तै": 7546,
      "▁कोरोनाका": 7547,
      "▁आर्": 7548,
      "हिक": 7549,
      "सम्पाद": 7550,
      "▁जङ्ग": 7551,
      "▁चाहन्छ": 7552,
      "▁मानिसलाई": 7553,
      "चाँ": 7554,
      "▁पुरुषको": 7555,
      "▁निकायको": 7556,
      "▁शनिवार": 7557,
      "▁घन": 7558,
      "▁कार्यसमिति": 7559,
      "ियन्स": 7560,
      "अल": 7561,
      "▁देखाउन": 7562,
      "▁उखु": 7563,
      "▁राज्यमन्त्री": 7564,
      "▁गुणा": 7565,
      "▁खुल्ला": 7566,
      "▁यादव,": 7567,
      "▁भ्रमणका": 7568,
      "▁विपक्षमा": 7569,
      "▁शुरू": 7570,
      "▁समुदायलाई": 7571,
      "▁रायमा": 7572,
      "वारण": 7573,
      "▁काठमाडौंका": 7574,
      "▁खेलाडीलाई": 7575,
      "▁एकताको": 7576,
      "रालो": 7577,
      "दमै": 7578,
      "▁विष्टले": 7579,
      "▁[": 7580,
      "▁विरुद्धको": 7581,
      "▁ओलम्प": 7582,
      "▁मृतक": 7583,
      "▁ठग": 7584,
      "▁त्यसबाट": 7585,
      "▁नेदर": 7586,
      "बाजी": 7587,
      "▁सहुलियत": 7588,
      "राति": 7589,
      "▁नियमन": 7590,
      "▁छु।": 7591,
      "▁कान्ति": 7592,
      "▁बचाउन": 7593,
      "▁नराख": 7594,
      "▁बत्ती": 7595,
      "▁न्यौपानेले": 7596,
      "चीको": 7597,
      "▁बीउ": 7598,
      "छोरी": 7599,
      "▁बसपार्क": 7600,
      "▁समाजका": 7601,
      "▁डिजाइन": 7602,
      "▁दोलखा": 7603,
      "मोर्चा": 7604,
      "पाइँ": 7605,
      "ाचार": 7606,
      "▁दुब": 7607,
      "▁ठिक": 7608,
      "▁बनाउँदा": 7609,
      "▁श्रद्धा": 7610,
      "▁सामान्यतया": 7611,
      "र्पोर": 7612,
      "▁अर्थतन्त्रमा": 7613,
      "ड्य": 7614,
      "▁क्रान्तिकारी": 7615,
      "▁मोहम्मद": 7616,
      "▁महँगो": 7617,
      "▁जलविद्युत": 7618,
      "▁सदन": 7619,
      "▁प्रयोजन": 7620,
      "▁डिग्री": 7621,
      "्रे": 7622,
      "▁गिरि": 7623,
      "हरि": 7624,
      "कता": 7625,
      "–पटक": 7626,
      "▁ध्व": 7627,
      "▁लाख,": 7628,
      "▁परिसरमा": 7629,
      "▁(नेकपा": 7630,
      "▁शिक्षाको": 7631,
      "▁ढिलो": 7632,
      "▁मैन": 7633,
      "▁बन्दी": 7634,
      "▁मनोज": 7635,
      "▁नगरप्रमुख": 7636,
      "▁होटलमा": 7637,
      "▁(१": 7638,
      "▁पहिरोले": 7639,
      "▁रियल": 7640,
      "▁राखिएका": 7641,
      "▁आतंक": 7642,
      "▁विमानस्थलको": 7643,
      "▁नारायणकाजी": 7644,
      "▁रायमाझ": 7645,
      "▁तस्करी": 7646,
      "▁पाउनु": 7647,
      "▁उपाध्यक्षमा": 7648,
      "आईजी": 7649,
      "ङ्ख": 7650,
      "ब्ब": 7651,
      "▁नर्स": 7652,
      "सिद्ध": 7653,
      "वालले": 7654,
      "▁राज्यका": 7655,
      "▁कडाइ": 7656,
      "▁उठेको": 7657,
      "▁अनुगम": 7658,
      "▁संस्करणको": 7659,
      "डीमा": 7660,
      "▁सुन्तला": 7661,
      "▁ग्रुप": 7662,
      "▁लाइन’": 7663,
      "▁अपाङ्ग": 7664,
      "▁विक्र": 7665,
      "▁प्रयत्न": 7666,
      "▁रास्वपा": 7667,
      "▁गोदा": 7668,
      "▁समावेशी": 7669,
      "▁प्लेट": 7670,
      "▁अड्": 7671,
      "▁उपमहासचिव": 7672,
      "▁दैलेख": 7673,
      "▁एसीसी": 7674,
      "स्थापन": 7675,
      "▁क्वारेन्टाइ": 7676,
      "सनले": 7677,
      "▁पारिएको": 7678,
      "क्सि": 7679,
      "ानले": 7680,
      "प्टे": 7681,
      "▁बैशाख": 7682,
      "▁खुकु": 7683,
      "▁मछिन्द्र": 7684,
      "वृत्ति": 7685,
      "▁निक्षेप": 7686,
      "छिन्,": 7687,
      "▁सुनिल": 7688,
      "▁खोल्ने": 7689,
      "▁२,": 7690,
      "▁दिनपछि": 7691,
      "▁पार्दै": 7692,
      "▁तिहा": 7693,
      "▁उल्लं": 7694,
      "▁भएकै": 7695,
      "▁व्यवस्थापनका": 7696,
      "क्व": 7697,
      "बापत": 7698,
      "▁जमा": 7699,
      "▁सुम": 7700,
      "▁एकदमै": 7701,
      "▁भौगोलिक": 7702,
      "▁बसाइ": 7703,
      "▁विवादमा": 7704,
      "▁थिएनन्": 7705,
      "▁अस्थिर": 7706,
      "▁सम्प्रेषण": 7707,
      "▁पटक–पटक": 7708,
      "▁निरु": 7709,
      "▁काठमाडौँमा": 7710,
      "सरकारी": 7711,
      "▁गठबन्धनले": 7712,
      "▁चाडपर्व": 7713,
      "▁‘डेडिकेटेड": 7714,
      "▁केन्द्र,": 7715,
      "▁गराएर": 7716,
      "क्ष्मी": 7717,
      "▁दलीय": 7718,
      "▁भोक": 7719,
      "▁टोलीलाई": 7720,
      "▁पुनःनिर्माण": 7721,
      "▁निवारण": 7722,
      "▁पेसा": 7723,
      "▁ओम": 7724,
      "▁विद्यमान": 7725,
      "सके": 7726,
      "▁सीता": 7727,
      "▁एकेडे": 7728,
      "▁विन्दु": 7729,
      "▁बाँदर": 7730,
      "्याएर": 7731,
      "▁नेत्र": 7732,
      "▁बुझाउन": 7733,
      "▁डाँडा": 7734,
      "▁मदिरा": 7735,
      "▁व्यक्तित्व": 7736,
      "▁आवतजा": 7737,
      "▁झर": 7738,
      "▁भरमा": 7739,
      "▁राष्ट्रको": 7740,
      "▁इम": 7741,
      "▁‘डेडिकेटेड’": 7742,
      "▁रोजगारीका": 7743,
      "▁खोज्न": 7744,
      "▁पुरानै": 7745,
      "▁बढेपछि": 7746,
      "▁व्यहो": 7747,
      "▁छोडेर": 7748,
      "▁दाउ": 7749,
      "▁सक्नेछन्": 7750,
      "▁शिविर": 7751,
      "रहित": 7752,
      "न्दि": 7753,
      "▁गर्दछु": 7754,
      "▁भिडियोमा": 7755,
      "▁तब": 7756,
      "▁एपिएफ": 7757,
      "▁‘का": 7758,
      "▁शिखर": 7759,
      "▁सुधारका": 7760,
      "सिसी": 7761,
      "▁‘ट्रंक": 7762,
      "▁एच": 7763,
      "▁गेट": 7764,
      "खे": 7765,
      "▁प्रस्ट": 7766,
      "जस्ती": 7767,
      "▁उल्लेख्य": 7768,
      "▁मुद्दाको": 7769,
      "वला": 7770,
      "आउट": 7771,
      "किए": 7772,
      "▁पृष्ठ": 7773,
      "▁सम्हाल": 7774,
      "▁आपसी": 7775,
      "▁नोक्स": 7776,
      "▁मुख्यमन्त्रीमा": 7777,
      "▁पृथ्व": 7778,
      "उप": 7779,
      "▁उत्खन": 7780,
      "▁नवराज": 7781,
      "▁शुक्ल": 7782,
      "▁स्थानीयको": 7783,
      "▁खोल्न": 7784,
      "▁धमा": 7785,
      "▁असं": 7786,
      "▁एक–": 7787,
      "▁किसिमका": 7788,
      "▁फेब्र": 7789,
      "▁पक्षलाई": 7790,
      "▁परराष्ट्रमन्त्री": 7791,
      "▁व्यापारिक": 7792,
      "▁खरेल": 7793,
      "▁बास": 7794,
      "▁(२": 7795,
      "▁सहभागि": 7796,
      "पार": 7797,
      "▁कर्पोर": 7798,
      "टाइन": 7799,
      "▁आश्वास": 7800,
      "लुङ": 7801,
      "▁भोग्": 7802,
      "▁करा": 7803,
      "▁सदस्यता": 7804,
      "▁रोकथाम": 7805,
      "▁ठप्प": 7806,
      "कन": 7807,
      "▁उनकै": 7808,
      "स्न": 7809,
      "▁मातृ": 7810,
      "▁प्रचण्डको": 7811,
      "▁सहिद": 7812,
      "▁थालि": 7813,
      "▁विश्वको": 7814,
      "▁युवती": 7815,
      "▁अभिलेख": 7816,
      "▁उठाएको": 7817,
      "▁नम्बरमा": 7818,
      "▁पर्छ।": 7819,
      "▁देउवालाई": 7820,
      "▁बोलाइएको": 7821,
      "ौलाले": 7822,
      "▁सुत्केरी": 7823,
      "▁गुज": 7824,
      "▁बस्तीमा": 7825,
      "▁लिम्बू": 7826,
      "▁अतिक्रमण": 7827,
      "▁आन्दोलनका": 7828,
      "▁चामल": 7829,
      "▁स्रोतको": 7830,
      "▁सिंगा": 7831,
      "▁नवौं": 7832,
      "▁युक्रेन": 7833,
      "यस": 7834,
      "▁हेड": 7835,
      "...]": 7836,
      "▁[...]": 7837,
      "▁उत्तम": 7838,
      "▁तीनवटा": 7839,
      "▁कालोपत्रे": 7840,
      "▁दिई": 7841,
      "▁कमिटीको": 7842,
      "▁सक्नुहुन्छ": 7843,
      "▁बेवास्ता": 7844,
      "▁न्यायिक": 7845,
      "▁ग्राम": 7846,
      "▁पोखराको": 7847,
      "▁स्टक": 7848,
      "▁महिला,": 7849,
      "▁बुवा": 7850,
      "▁आक्रमणमा": 7851,
      "▁हद": 7852,
      "▁नसकेपछि": 7853,
      "▁ढुंगा": 7854,
      "▁घटनाका": 7855,
      "▁एनसेल": 7856,
      "▁भद्र": 7857,
      "▁आफूहरुले": 7858,
      "हाले": 7859,
      "▁दलहरू": 7860,
      "▁राम्रोसँग": 7861,
      "विश्वास": 7862,
      "▁निरीक्षण": 7863,
      "▁लगानीको": 7864,
      "▁आदिवासी": 7865,
      "▁अक्टो": 7866,
      "रूद्ध": 7867,
      "सक्यो": 7868,
      "वन्ध": 7869,
      "ना,": 7870,
      "▁फर्म": 7871,
      "▁२०२३": 7872,
      "▁मौन": 7873,
      "लास": 7874,
      "▁हेलि": 7875,
      "▁एजे": 7876,
      "▁सङ्क": 7877,
      "▁सहमत": 7878,
      "▁जीवनको": 7879,
      "▁ट्रे": 7880,
      "▁हेम": 7881,
      "▁सिस्ट": 7882,
      "▁विस्तारै": 7883,
      "निर्वाचित": 7884,
      "▁वाग्मती": 7885,
      "ालमा": 7886,
      "▁प्रतिद्वन्द": 7887,
      "▁सभाका": 7888,
      "▁बालकृष्ण": 7889,
      "▁अग्नि": 7890,
      "▁अखिल": 7891,
      "▁मल्लले": 7892,
      "▁बझा": 7893,
      "▁दार्चु": 7894,
      "▁कौ": 7895,
      "श्री": 7896,
      "▁कार्की,": 7897,
      "ण्डमा": 7898,
      "▁डल": 7899,
      "▁लक्ष्मण": 7900,
      "▁२०१७": 7901,
      "तर्फी": 7902,
      "▁पेनाल्": 7903,
      "▁वृत्त": 7904,
      "टाएको": 7905,
      "▁गर्नुपर्छ।": 7906,
      "▁पुग्छ": 7907,
      "▁पेरि": 7908,
      "▁धम्की": 7909,
      "▁केन्द्रबाट": 7910,
      "▁गर्नै": 7911,
      "▁कैदी": 7912,
      "▁सुकु": 7913,
      "▁रहनु": 7914,
      "ैया": 7915,
      "▁प्रवर्द्धन": 7916,
      "▁हजुर": 7917,
      "▁भएकाे": 7918,
      "▁लागुऔषध": 7919,
      "▁मिस": 7920,
      "▁फर्कने": 7921,
      "▁आइतवार": 7922,
      "▁गर्भव": 7923,
      "▁गर्दैन": 7924,
      "ड्दा": 7925,
      "▁प्रतिशतभन्दा": 7926,
      "▁सङ्घर्ष": 7927,
      "▁आर्जन": 7928,
      "▁पका": 7929,
      "▁खासगरी": 7930,
      "▁जबर": 7931,
      "▁हौ": 7932,
      "▁स्वाब": 7933,
      "दमा": 7934,
      "▁गर्नुहु": 7935,
      "▁अन्यो": 7936,
      "▁दूरस": 7937,
      "▁जन्मा": 7938,
      "▁जनकपुरधा": 7939,
      "▁भूमिकामा": 7940,
      "▁जाति": 7941,
      "▁स्तरोन्नति": 7942,
      "▁त्यहाँबाट": 7943,
      "▁सार्वभौ": 7944,
      "न्याय": 7945,
      "ानामा": 7946,
      "▁सिलि": 7947,
      "▁अनुसन्धानमा": 7948,
      "▁प्याले": 7949,
      "▁ठोस": 7950,
      "धाई": 7951,
      "▁गहिरो": 7952,
      "▁लगाउँदै": 7953,
      "▁उत्साहित": 7954,
      "झो": 7955,
      "▁किन्न": 7956,
      "▁आफूहरु": 7957,
      "▁आदान": 7958,
      "▁स्पष्टीकरण": 7959,
      "▁वेब": 7960,
      "▁अवतरण": 7961,
      "▁सम्झौतामा": 7962,
      "▁अन्यत्र": 7963,
      "▁बेलायती": 7964,
      "पट": 7965,
      "ारीले": 7966,
      "▁नामावली": 7967,
      "▁बिहे": 7968,
      "बुटी": 7969,
      "याे": 7970,
      "▁धितोपत्र": 7971,
      "▁पार्टीबाट": 7972,
      "भाष": 7973,
      "▁मापन": 7974,
      "▁भुसालले": 7975,
      "▁कामना": 7976,
      "▁राहु": 7977,
      "▁कोषमा": 7978,
      "▁घरपरिवार": 7979,
      "▁सहयोगको": 7980,
      "▁शता": 7981,
      "▁दिनुपर्छ": 7982,
      "▁कुर्": 7983,
      "▁बन्छ": 7984,
      "▁दूरसञ्चार": 7985,
      "▁बोल्ने": 7986,
      "▁क्रिकेटको": 7987,
      "▁सदु": 7988,
      "▁बैंकमा": 7989,
      "▁सर्वेक्षण": 7990,
      "▁असन्तुष्ट": 7991,
      "▁बुटव": 7992,
      "▁तीर्थ": 7993,
      "▁मूल्यांकन": 7994,
      "▁उद्यम": 7995,
      "देन": 7996,
      "▁महिनाभित्र": 7997,
      "▁सन्धि": 7998,
      "▁चरम": 7999,
      "▁इमेल": 8000,
      "▁सातदो": 8001,
      "▁प्रस्थान": 8002,
      "▁विदेशबाट": 8003,
      "▁तयारीका": 8004,
      "▁भुसाल": 8005,
      "आत": 8006,
      "▁भनेपछि": 8007,
      "▁तरिका": 8008,
      "▁पत्राचार": 8009,
      "▁इन्चार्ज": 8010,
      "बिना": 8011,
      "धम": 8012,
      "▁दौड": 8013,
      "वर्तमान": 8014,
      "तालिका": 8015,
      "▁खातामा": 8016,
      "▁बाख्रा": 8017,
      "▁बिष": 8018,
      "▁पदबाट": 8019,
      "▁रोका": 8020,
      "▁प्रतिनिधिसभामा": 8021,
      "▁मिर्ग": 8022,
      "▁उपधारा": 8023,
      "िँदै": 8024,
      "विक्रम": 8025,
      "▁तारिख": 8026,
      "▁सोलु": 8027,
      "टिन": 8028,
      "उँछन्": 8029,
      "▁फागु": 8030,
      "▁लिनु": 8031,
      "▁लाइसेन्स": 8032,
      "▁कम्प्यु": 8033,
      "▁व्यवसायमा": 8034,
      "्रिड": 8035,
      "थोकी": 8036,
      "▁भगवान": 8037,
      "▁जडी": 8038,
      "▁अनुसन्धानका": 8039,
      "▁कायमै": 8040,
      "▁ढुङ्गा": 8041,
      "▁रोक्ने": 8042,
      "▁चलाएको": 8043,
      "▁शास्त्र": 8044,
      "▁माग्": 8045,
      "हक": 8046,
      "▁आकां": 8047,
      "इसकेको": 8048,
      "▁विश्वकपमा": 8049,
      "▁वीरगन्ज": 8050,
      "▁उद्योगमा": 8051,
      "▁सुरक्षा,": 8052,
      "▁तुरु": 8053,
      "▁बच्न": 8054,
      "▁युट": 8055,
      "िनै": 8056,
      "▁राती": 8057,
      "▁नसकेका": 8058,
      "▁उपत्यकाका": 8059,
      "▁एपीएफ": 8060,
      "प्ट": 8061,
      "▁डढ": 8062,
      "प,": 8063,
      "▁रावलले": 8064,
      "▁प्रदायक": 8065,
      "▁प्रदूषण": 8066,
      "▁सेप्टे": 8067,
      "▁विक्रम": 8068,
      "▁फिट": 8069,
      "▁रोनाल्": 8070,
      "▁सदुपयोग": 8071,
      "▁दिनका": 8072,
      "र्पण": 8073,
      "ेल,": 8074,
      "ेरिय": 8075,
      "▁धेरैजसो": 8076,
      "▁पदका": 8077,
      "▁क्लबले": 8078,
      "ानीको": 8079,
      "▁प्रदर्शनमा": 8080,
      "▁माइक्रो": 8081,
      "▁मोदीले": 8082,
      "▁आउँदो": 8083,
      "▁लेन": 8084,
      "▁देउवाको": 8085,
      "्युब": 8086,
      "▁कार्यसम्पाद": 8087,
      "▁तिमिल्": 8088,
      "परित": 8089,
      "नासाथ": 8090,
      "▁क्वारेन्टाइनमा": 8091,
      "ब्लिक": 8092,
      "▁इतिहासमा": 8093,
      "▁प्रतिस्पर्धामा": 8094,
      "अगा": 8095,
      "▁द्र": 8096,
      "▁नेटवर्क": 8097,
      "चेत": 8098,
      "स्योर": 8099,
      "▁लागतमा": 8100,
      "▁जिता": 8101,
      "▁लाखको": 8102,
      "▁२०३": 8103,
      "पोखरी": 8104,
      "▁घुस": 8105,
      "▁राम्रै": 8106,
      "▁२०५०": 8107,
      "▁प्रशस्त": 8108,
      "ालयमा": 8109,
      "मीका": 8110,
      "मेरो": 8111,
      "▁आफैंले": 8112,
      "▁वेस्ट": 8113,
      "▁सहजै": 8114,
      "▁भाषण": 8115,
      "▁शेखर": 8116,
      "▁‘न": 8117,
      "▁शर्मा,": 8118,
      "▁राम्रा": 8119,
      "▁गरेपनि": 8120,
      "▁टिका": 8121,
      "▁भन्नेबारे": 8122,
      "ट्टी": 8123,
      "▁रोमा": 8124,
      "धनी": 8125,
      "▁धरा": 8126,
      "खेती": 8127,
      "ारको": 8128,
      "▁समुदायमा": 8129,
      "▁चाबहि": 8130,
      "▁अध्ययनरत": 8131,
      "–५": 8132,
      "▁तत्कालै": 8133,
      "धुरा": 8134,
      "▁ह्वा": 8135,
      "▁दोब्बर": 8136,
      "▁पढ्ने": 8137,
      "ेसी": 8138,
      "वादको": 8139,
      "▁अंग्र": 8140,
      "▁प्रहरीमा": 8141,
      "गिरि": 8142,
      "▁धमाधम": 8143,
      "▁मुम्बई": 8144,
      "▁किस्ता": 8145,
      "▁बुँदा": 8146,
      "▁गीतको": 8147,
      "▁बेरो": 8148,
      "▁संशोध": 8149,
      "ंगी": 8150,
      "▁नाघ": 8151,
      "जनी": 8152,
      "▁गाली": 8153,
      "▁प्रतिद्वन्द्वी": 8154,
      "▁तुरुन्त": 8155,
      "▁फस": 8156,
      "▁दलहरु": 8157,
      "प्य": 8158,
      "लेखा": 8159,
      "▁मध्यन": 8160,
      "▁बधाई": 8161,
      "याधि": 8162,
      "▁भाडामा": 8163,
      "▁विकास,": 8164,
      "▁लिभर": 8165,
      "▁इस्": 8166,
      "▁खै": 8167,
      "▁बढेका": 8168,
      "▁प्रश्नको": 8169,
      "ङ्गे": 8170,
      "वियु": 8171,
      "लेन": 8172,
      "आज": 8173,
      "ले,": 8174,
      "▁पश्चा": 8175,
      "खेर": 8176,
      "▁डोल्पा": 8177,
      "▁वक्त": 8178,
      "▁आइसोलेसनमा": 8179,
      ".०": 8180,
      "▁जनमोर्चा": 8181,
      "▁दशैं": 8182,
      "▁च्याम्पियन्स": 8183,
      "▁रजि": 8184,
      "▁देखाएर": 8185,
      "▁सुनचाँ": 8186,
      "▁प्रयोगशाला": 8187,
      "▁जापानको": 8188,
      "▁रहेकी": 8189,
      "▁परिमार्जन": 8190,
      "▁रोजगारीको": 8191,
      "▁कारखाना": 8192,
      "▁नगरपालिका–८": 8193,
      "▁हाराहारीमा": 8194,
      "▁अपहरण": 8195,
      "एनन्": 8196,
      "▁कार्यपालिका": 8197,
      "▁मानिएको": 8198,
      "▁छैट": 8199,
      "▁बाजु": 8200,
      "▁मार्क": 8201,
      "▁तिनै": 8202,
      "▁कार्यान्वयनका": 8203,
      "▁जानकार": 8204,
      "▁नोभे": 8205,
      "▁बुढाथोकी": 8206,
      "▁विशेषगरी": 8207,
      "▁हुन्न": 8208,
      "▁राजन": 8209,
      "▁गैरका": 8210,
      "▁पुलिस": 8211,
      "▁प्रत्यारोपण": 8212,
      "▁समुह": 8213,
      "▁गंगा": 8214,
      "्यवहार": 8215,
      "-१९": 8216,
      "स्टिक": 8217,
      "छिन्।": 8218,
      "▁मध्यनजर": 8219,
      "वर्ती": 8220,
      "लम": 8221,
      "▁मैनाली": 8222,
      "पेक्ष": 8223,
      "िट": 8224,
      "▁२०१६": 8225,
      "▁तपाईँ": 8226,
      "▁गर्नुका": 8227,
      "▁ताला": 8228,
      "▁ढुंगाना": 8229,
      "▁ललितपुरको": 8230,
      "▁देखाउने": 8231,
      "▁एएफ": 8232,
      "सन्न": 8233,
      "▁पण्डित": 8234,
      "▁राहदानी": 8235,
      "▁डटक": 8236,
      "▁सातदोबाटो": 8237,
      "▁सङ्ख्यामा": 8238,
      "दिव": 8239,
      "▁निकायमा": 8240,
      "▁ओलम्पिक": 8241,
      "लोजी": 8242,
      "▁विकेटको": 8243,
      "▁लाइफ": 8244,
      "▁भवनको": 8245,
      "▁भेरी": 8246,
      "▁अवस्थित": 8247,
      "▁ढाका": 8248,
      "▁आश्वासन": 8249,
      "▁स्पे": 8250,
      "▁निष्कास": 8251,
      "▁महराले": 8252,
      "▁अप्ठ्यारो": 8253,
      "▁नसकिएको": 8254,
      "▁सर्त": 8255,
      "न्धि": 8256,
      "▁राजधानीमा": 8257,
      "बीचमा": 8258,
      "▁गरेसँगै": 8259,
      "िएर": 8260,
      "▁बोलाएर": 8261,
      "ेटिङ": 8262,
      "▁जाहेरी": 8263,
      "▁बदर": 8264,
      "▁लागे": 8265,
      "▁बारम्बार": 8266,
      "▁काफ्": 8267,
      "नैतिक": 8268,
      "▁गरिन्छ।": 8269,
      "▁पठनपाठ": 8270,
      "▁काठमाडौं-": 8271,
      "▁रुपान्तरण": 8272,
      "▁बताउनुभयो।": 8273,
      "ाउनको": 8274,
      "▁सांसदको": 8275,
      "▁फेब्रुअ": 8276,
      "▁बिच": 8277,
      "▁सुरेश": 8278,
      "▁विरोधी": 8279,
      "▁गैरआ": 8280,
      "▁गर्दैछ": 8281,
      "▁उक्": 8282,
      "जीवी": 8283,
      "▁स्वाभाविक": 8284,
      "वाहक": 8285,
      "▁संघीयता": 8286,
      "▁शताब्": 8287,
      "▁लगायतको": 8288,
      "▁माइती": 8289,
      "▁दक्षिणी": 8290,
      "▁पोज": 8291,
      "▁छात्रा": 8292,
      "▁प्रधाना": 8293,
      "▁प्रस्तावित": 8294,
      "▁बीपी": 8295,
      "▁नबुझ": 8296,
      "▁बस्नु": 8297,
      "▁रसुवा": 8298,
      "▁जोड्न": 8299,
      "▁प्रचलन": 8300,
      "लनाथ": 8301,
      "▁सट्टा": 8302,
      "▁टेस्ट": 8303,
      "▁ज्योति": 8304,
      "▁उप्र": 8305,
      "▁ठोक्किँदा": 8306,
      "▁धरौ": 8307,
      "▁आजबाट": 8308,
      "▁कहिलेका": 8309,
      "▁पार्किङ": 8310,
      "▁अपर": 8311,
      "▁समुदायले": 8312,
      "▁न्युज": 8313,
      "▁प्रतिशत,": 8314,
      "▁तौल": 8315,
      "ृत्य": 8316,
      "▁ट्वि": 8317,
      "▁अवस्थाको": 8318,
      "▁लाखभन्दा": 8319,
      "वरको": 8320,
      "▁बोलाएको": 8321,
      "रथ": 8322,
      "▁तिब्ब": 8323,
      "▁लागेपछि": 8324,
      "▁कारबाहीको": 8325,
      "▁फ्रान्": 8326,
      "▁पदमार्ग": 8327,
      "▁सिरिज": 8328,
      "▁खोटाङ": 8329,
      "▁दसैँ": 8330,
      "▁रंगशालामा": 8331,
      "▁हुँदैन,": 8332,
      "▁‘अब": 8333,
      "▁‘‘": 8334,
      "▁प्रचण्डलाई": 8335,
      "र्दन": 8336,
      "▁यसपाल": 8337,
      "ाउँमा": 8338,
      "▁कागज": 8339,
      "▁विश्वप्रकाश": 8340,
      "▁हेल्": 8341,
      "’का": 8342,
      "▁गठनको": 8343,
      "▁पक्कै": 8344,
      "केश": 8345,
      "▁संग": 8346,
      "खल": 8347,
      "▁ज्वा": 8348,
      "▁प्ल": 8349,
      "▁अतिथि": 8350,
      "▁माल्": 8351,
      "गडा": 8352,
      "▁माओवादीका": 8353,
      "▁अन्तरक्रिया": 8354,
      "▁थाल्यो": 8355,
      "▁महिनासम्म": 8356,
      "▁आकार": 8357,
      "▁साग": 8358,
      "▁राजदूतावास": 8359,
      "▁‘को": 8360,
      "लोमा": 8361,
      "▁पुर्याउने": 8362,
      "▁एसोसिए": 8363,
      "▁प्रमाणीकरण": 8364,
      "▁फाइना": 8365,
      "▁केदार": 8366,
      "▁छानविन": 8367,
      "ज्यू": 8368,
      "▁रै": 8369,
      "▁नेकपाको": 8370,
      "ठू": 8371,
      "ञ्जि": 8372,
      "▁विभागमा": 8373,
      "ेन्सन": 8374,
      "▁जनजाति": 8375,
      "▁गराई": 8376,
      ",'": 8377,
      "▁भर्खरै": 8378,
      "▁इजलासमा": 8379,
      "डेल्": 8380,
      "▁बराबरीमा": 8381,
      "▁एजेण्डा": 8382,
      "▁प्रदर्शनी": 8383,
      "▁अत्यन्तै": 8384,
      "▁रिस": 8385,
      "▁निकाल्न": 8386,
      "दिए": 8387,
      "ट्रिक": 8388,
      "▁करोडको": 8389,
      "▁कठि": 8390,
      "▁पुर्‍याउन": 8391,
      "लता": 8392,
      "▁अपिल": 8393,
      "▁समितिलाई": 8394,
      "▁सामाग्री": 8395,
      "▁शैली": 8396,
      "थ्यो।": 8397,
      "▁उपसभापति": 8398,
      "▁(अ": 8399,
      "▁मसान्तसम्म": 8400,
      "▁मुस्लिम": 8401,
      "▁विदेशमन्त्री": 8402,
      "▁चाहिन्छ": 8403,
      "▁बाइ": 8404,
      "▁उठाएका": 8405,
      "▁खानी": 8406,
      "▁‘तर": 8407,
      "▁रोल्पा": 8408,
      "▁हेटौँ": 8409,
      "▁निम्त्या": 8410,
      "▁वर्षमान": 8411,
      "▁देवकोटा": 8412,
      "▁झि": 8413,
      "▁श्रीमान": 8414,
      "▁बढ्छ": 8415,
      "न्तिक": 8416,
      "मूल्य": 8417,
      "▁अवकाश": 8418,
      "▁गठित": 8419,
      "▁छोराछोरी": 8420,
      "▁झापाको": 8421,
      "▁हिरासतमा": 8422,
      "▁सिकाइ": 8423,
      "▁आदर्श": 8424,
      "▁वर्षाका": 8425,
      "▁सकिँदैन": 8426,
      "▁उल्लंघन": 8427,
      "वासीय": 8428,
      "▁विकेटले": 8429,
      "▁क्लि": 8430,
      "▁एन्टि": 8431,
      "ः३०": 8432,
      "स्तरको": 8433,
      "▁म्याग्दीको": 8434,
      "▁विश्वकर्मा": 8435,
      "▁पति": 8436,
      "▁आवको": 8437,
      "▁स्थानको": 8438,
      "▁अब्": 8439,
      "▁महानगरपालिकाका": 8440,
      "तापूर्वक": 8441,
      "▁मिलेको": 8442,
      "कुलपति": 8443,
      "▁फर्किने": 8444,
      "▁२०७०": 8445,
      "▁भारतसँग": 8446,
      "▁जिल्लाबाट": 8447,
      "▁बनेपछि": 8448,
      "▁विगतका": 8449,
      "▁मानिसहरु": 8450,
      "▁बहुम": 8451,
      "▁कान्छ": 8452,
      "तेको": 8453,
      "▁रनले": 8454,
      "▁हुन्छन्।": 8455,
      "▁परीक्षामा": 8456,
      "▁उमेश": 8457,
      "मोहन": 8458,
      "▁परीक्षणमा": 8459,
      "▁इमा": 8460,
      "▁आवमा": 8461,
      "▁खानेपानीको": 8462,
      "▁छाउ": 8463,
      "▁ग्य": 8464,
      "▁अछा": 8465,
      "-२०": 8466,
      "ेलमा": 8467,
      "▁प्रयोजनका": 8468,
      "▁रघु": 8469,
      "▁साधनको": 8470,
      "▁पैदा": 8471,
      "र्जु": 8472,
      "▁सामग्र": 8473,
      "▁किनारमा": 8474,
      "ञ्जु": 8475,
      "▁पोखरी": 8476,
      "▁चिनी": 8477,
      "▁नारी": 8478,
      "▁सत्तामा": 8479,
      "▁विषा": 8480,
      "▁परिवर्तनका": 8481,
      "▁बोल्": 8482,
      "▁रोनाल्डो": 8483,
      "▁गर्भवती": 8484,
      "कर्म": 8485,
      "▁म्याने": 8486,
      "अर्का": 8487,
      "▁ध्रु": 8488,
      "▁सङ्गठन": 8489,
      "▁वक्तव्य": 8490,
      "च्छुक": 8491,
      "▁कच्चा": 8492,
      "▁हुनुपर्नेमा": 8493,
      "▁मुलुकलाई": 8494,
      "▁कार्यलाई": 8495,
      "▁खोज्दा": 8496,
      "▁मानिने": 8497,
      "▁उपवि": 8498,
      "बन": 8499,
      "▁जाडो": 8500,
      "▁रोगका": 8501,
      "नालाई": 8502,
      "▁रेग्मीले": 8503,
      "▁कमला": 8504,
      "घात": 8505,
      "▁पालिकामा": 8506,
      "काइ": 8507,
      "▁छैन्": 8508,
      "▁त्यहीँ": 8509,
      "▁अग्रसर": 8510,
      "▁हेटौंडा": 8511,
      "▁अफि": 8512,
      "▁सहरमा": 8513,
      "▁इन्स्योर": 8514,
      "चरण": 8515,
      "▁प्रशोधन": 8516,
      "▁विद्यालयले": 8517,
      "▁नुवाकोट": 8518,
      "▁चल्न": 8519,
      "▁अधिकृतको": 8520,
      "▁समेटिएको": 8521,
      "▁नवनि": 8522,
      "लाग्दो": 8523,
      "▁सोमवार": 8524,
      "▁ली": 8525,
      "▁प्रदेशसभामा": 8526,
      "ङ्गी": 8527,
      "▁गराउनु": 8528,
      "▁दमौली": 8529,
      "▁जोडेको": 8530,
      "▁सायद": 8531,
      "▁हृदय": 8532,
      "ग्रहण": 8533,
      "वीन्द्र": 8534,
      "प्रदान": 8535,
      "गर्": 8536,
      "▁अर्थतन्त्रको": 8537,
      "▁गोक": 8538,
      "▁सयभन्दा": 8539,
      "▁भाइरल": 8540,
      "▁(जसपा": 8541,
      "▁ख्याल": 8542,
      "▁दिवसका": 8543,
      "▁औषधी": 8544,
      "▁पुलको": 8545,
      "▁लिभरपु": 8546,
      "▁डोज": 8547,
      "▁बैंकि": 8548,
      "▁जोन": 8549,
      "▁मेहन": 8550,
      "▁भक्तपुरमा": 8551,
      "बीले": 8552,
      "▁आवद्ध": 8553,
      "गरि": 8554,
      "▁साइकल": 8555,
      "▁प्रतिभा": 8556,
      "सीयू": 8557,
      "▁बिन्दु": 8558,
      "▁मन्त्रालयलाई": 8559,
      "▁शही": 8560,
      "▁मिल्दैन": 8561,
      "▁पक्की": 8562,
      "▁भिन्न": 8563,
      "▁परिवारमा": 8564,
      "▁एशिया": 8565,
      "▁इटाली": 8566,
      "▁युरोपेली": 8567,
      "▁शान्तिपूर्ण": 8568,
      "▁१९४": 8569,
      "▁छुट्टा": 8570,
      "▁पोजेटिभ": 8571,
      "▁रेश": 8572,
      "▁मिच": 8573,
      "▁सरोज": 8574,
      "▁बर्से": 8575,
      "▁चितवन,": 8576,
      "▁सना": 8577,
      "▁हिमालयन": 8578,
      "▁स्थितिमा": 8579,
      "▁औसत": 8580,
      "–अ": 8581,
      "▁मान्ने": 8582,
      "▁महाअ": 8583,
      "पछिको": 8584,
      "▁मिलन": 8585,
      "▁मालपो": 8586,
      "▁राजपा": 8587,
      "ने,": 8588,
      "नियाँ": 8589,
      "ँगा": 8590,
      "▁प्रिय": 8591,
      "▁श्रीलंकामा": 8592,
      "मिता": 8593,
      "स्थानमा": 8594,
      "▁झाले": 8595,
      "ूरो": 8596,
      "▁स्वि": 8597,
      "▁दायरामा": 8598,
      "उनुभयो": 8599,
      "गाह": 8600,
      "▁वर्षभन्दा": 8601,
      "न्डा": 8602,
      "▁झरेको": 8603,
      "▁कोट": 8604,
      "▁कार्तिक": 8605,
      "▁जबरजस्ती": 8606,
      "▁गरेकोमा": 8607,
      "▁ताइ": 8608,
      "▁गर्नुको": 8609,
      "ड्नु": 8610,
      "ष्ठा": 8611,
      "▁बाक्": 8612,
      "▁प्रस्तावमा": 8613,
      "▁ल्": 8614,
      "ड्ने": 8615,
      "▁दशरथ": 8616,
      "▁भाग्य": 8617,
      "▁नराम्रो": 8618,
      "कुश": 8619,
      "▁मार": 8620,
      "▁एकातिर": 8621,
      "▁निवर्तमान": 8622,
      "▁मनसुन": 8623,
      "▁यद्यपि,": 8624,
      "▁सुब्बा": 8625,
      "▁तामाङ,": 8626,
      "फेर": 8627,
      "▁उद्यमी": 8628,
      "▁मंगलवार": 8629,
      "▁यसैगरी,": 8630,
      "द्धान्तिक": 8631,
      "▁खोपको": 8632,
      "▁लडाइ": 8633,
      "िल्ड": 8634,
      "भेट": 8635,
      "▁प्रज्ञा": 8636,
      "▁मन्त्रालय,": 8637,
      "▁मोडल": 8638,
      "▁बाग्": 8639,
      "मस": 8640,
      "▁संग्रह": 8641,
      "▁खुट्टा": 8642,
      "▁थ्री": 8643,
      "ट्टेलले": 8644,
      "तारी": 8645,
      "र्जी": 8646,
      "▁घोषित": 8647,
      "▁सुनसरी": 8648,
      "▁महिनापछि": 8649,
      "▁एकदिव": 8650,
      "▁जगत": 8651,
      "▁प्रतिलि": 8652,
      "▁म्युजिक": 8653,
      "रहेकी": 8654,
      "▁डडेल्": 8655,
      "▁प्रतिफल": 8656,
      "▁बानी": 8657,
      "▁गर्नेलाई": 8658,
      "▁लोकतन्त्रको": 8659,
      "▁कालीगण्डकी": 8660,
      "▁विधेयकमा": 8661,
      "▁प्रदेशसभाको": 8662,
      "म्बरमा": 8663,
      "▁सुन्न": 8664,
      "▁व्यवस्थापनको": 8665,
      "▁अपरि": 8666,
      "▁लापर": 8667,
      "▁नेतृत्वले": 8668,
      "▁जुलाई": 8669,
      "वासीलाई": 8670,
      "▁फला": 8671,
      "▁प्रधानमन्त्रीलाई": 8672,
      "▁समाजले": 8673,
      "णु": 8674,
      "य्या": 8675,
      "▁गाडीमा": 8676,
      "▁काठमाडौँको": 8677,
      "▁सम्बन्धलाई": 8678,
      "▁गैरआवासीय": 8679,
      "▁मार्ने": 8680,
      "बुल": 8681,
      "▁दसैं": 8682,
      "▁पवि": 8683,
      "▁विकृति": 8684,
      "▁भन्छिन्,": 8685,
      "▁रु.": 8686,
      "▁चुनावको": 8687,
      "क्रामक": 8688,
      "▁सिफारिसमा": 8689,
      "▁प्याकेज": 8690,
      "▁प्रदेशले": 8691,
      "▁शालिकराम": 8692,
      "डिओ": 8693,
      "▁निकास": 8694,
      "श्याम": 8695,
      "▁छनौट": 8696,
      "ेछा": 8697,
      "▁सर्वसम्मत": 8698,
      "माल": 8699,
      "▁अलिक": 8700,
      "▁(एन": 8701,
      "▁कोइरालाको": 8702,
      "▁‘ए’": 8703,
      "▁प्रस्तुति": 8704,
      "▁दाङ": 8705,
      "▁मुआ": 8706,
      "खुट्": 8707,
      "क्ताको": 8708,
      "धना": 8709,
      "▁परिषद्को": 8710,
      "▁राइ": 8711,
      "▁मधेसी": 8712,
      "▁छवि": 8713,
      "▁निलम्बन": 8714,
      "▁ध्यानमा": 8715,
      "▁मता": 8716,
      "▁कीर्तिमान": 8717,
      "▁‘सं": 8718,
      "▁शाक्यले": 8719,
      "▁सकिन": 8720,
      "▁गोकर्ण": 8721,
      "▁घन्टा": 8722,
      "काई": 8723,
      "पश्चात्": 8724,
      "▁युवालाई": 8725,
      "▁ट्रेड": 8726,
      "▁गरिँदै": 8727,
      "▁डाटा": 8728,
      "▁रुस": 8729,
      "▁जीवित": 8730,
      "▁अना": 8731,
      "राज्य": 8732,
      "▁छुट्या": 8733,
      "▁अफर": 8734,
      "▁सिं": 8735,
      "▁गाउँपालिका–१": 8736,
      "▁बाधा": 8737,
      "▁‘ह": 8738,
      "▁स्वरुप": 8739,
      "▁क्षेत्रले": 8740,
      "▁राख्नुपर्ने": 8741,
      "▁विषयवस्तु": 8742,
      "▁मालिक": 8743,
      "▁सेनाका": 8744,
      "र्कि": 8745,
      "▁खाएर": 8746,
      "▁उत्रिएका": 8747,
      "▁सुशील": 8748,
      "र्दिक": 8749,
      "▁समर्थक": 8750,
      "ियु": 8751,
      "▁एड": 8752,
      "▁पूर्णता": 8753,
      "▁चाइ": 8754,
      "▁मुगु": 8755,
      "▁बलिउड": 8756,
      "ठमाड": 8757,
      "▁ट्याङ्कर": 8758,
      "▁थियौँ": 8759,
      "▁किट": 8760,
      "▁अख्तियारले": 8761,
      "▁आइएमई": 8762,
      "▁मही": 8763,
      "▁रुपैयाँले": 8764,
      "▁रणनीतिक": 8765,
      "▁ग्राहकले": 8766,
      "▁रजत": 8767,
      "▁चितवनमा": 8768,
      "▁दीप": 8769,
      "▁नगरपालिका-": 8770,
      "▁निर्माण,": 8771,
      "▁सडकअन्तर्गत": 8772,
      "▁पाहु": 8773,
      "▁मन्दिरको": 8774,
      "▁स्तरमा": 8775,
      "▁खग": 8776,
      "कू": 8777,
      "▁२०१५": 8778,
      "▁करणी": 8779,
      "पाथ": 8780,
      "▁घर,": 8781,
      "▁बढ्नु": 8782,
      "▁पुँजीगत": 8783,
      "▁मेलम्चीको": 8784,
      "▁क्षण": 8785,
      "▁गोल्": 8786,
      ")मा": 8787,
      "च्छेद": 8788,
      "▁पु¥याउने": 8789,
      "▁वकिल": 8790,
      "▁झलनाथ": 8791,
      "▁अपराह्न": 8792,
      "▁बन्नु": 8793,
      "ष्कार": 8794,
      "च्यु": 8795,
      "▁भोजपुर": 8796,
      "▁सैद्धान्तिक": 8797,
      "▁जितमा": 8798,
      "▁शर्माको": 8799,
      "▁साताको": 8800,
      "▁छायांकन": 8801,
      "▁छलफलका": 8802,
      "▁सङ्कट": 8803,
      "▁नेतालाई": 8804,
      "▁कम्प्युटर": 8805,
      "▁उपसचिव": 8806,
      "▁बढाएर": 8807,
      "▁हजारौं": 8808,
      "▁गरौं": 8809,
      "लगायतले": 8810,
      "▁रामेछा": 8811,
      "▁हार्दिक": 8812,
      "काले": 8813,
      "न्दर्य": 8814,
      "▁रहेन": 8815,
      "▁नेताहरुको": 8816,
      "▁थापालाई": 8817,
      "▁विस्फोट": 8818,
      "▁हजारको": 8819,
      "▁सकेसम्म": 8820,
      "र्भिक": 8821,
      "▁छठ": 8822,
      "▁गर्छौं": 8823,
      "▁चलचित्रमा": 8824,
      "▁शिक्षामा": 8825,
      "▁उपमेयर": 8826,
      "▁पद्धति": 8827,
      "▁सुमन": 8828,
      "▁अन्तराष्ट्रिय": 8829,
      "▁कम्पनीमा": 8830,
      "ँु": 8831,
      "▁नआएको": 8832,
      "थे।": 8833,
      "▁व्यवसायीलाई": 8834,
      "▁मानन्ध": 8835,
      "▁नबि": 8836,
      "▁जमि": 8837,
      "कहाँ": 8838,
      "त्तिकै": 8839,
      "▁पर्यटकलाई": 8840,
      "▁पट": 8841,
      "▁सेती": 8842,
      "लगायतको": 8843,
      "▁कोषको": 8844,
      "▁नायव": 8845,
      "▁घुम्न": 8846,
      "▁कैलालीको": 8847,
      "▁सिद्धार्थ": 8848,
      "▁प्रधानाध्यापक": 8849,
      "ौता": 8850,
      "▁रूपान्तरण": 8851,
      "▁गतेबाट": 8852,
      "▁संकल": 8853,
      "’ले": 8854,
      "सीलाई": 8855,
      "▁अधिकारीहरुले": 8856,
      "▁गायिका": 8857,
      "▁निकायका": 8858,
      "▁सभाबाट": 8859,
      "▁सहमतिमा": 8860,
      "प्रे": 8861,
      "▁हिमपा": 8862,
      "▁गौरी": 8863,
      "तीन": 8864,
      "▁परिचित": 8865,
      "▁ओपनर": 8866,
      "जेता": 8867,
      "▁व्यवसायीको": 8868,
      "▁अवलम्बन": 8869,
      "▁आईपी": 8870,
      "▁सिलसि": 8871,
      "▁”": 8872,
      "जारी": 8873,
      "▁उद्योगको": 8874,
      "▁व्यापार,": 8875,
      "▁असल": 8876,
      "▁म्याग": 8877,
      "▁मस": 8878,
      "▁महिनाअघि": 8879,
      "▁प्रशिक्षणमा": 8880,
      "▁नारायणी": 8881,
      "्याउँदै": 8882,
      "▁रुपैयाँ,": 8883,
      "▁गह": 8884,
      "▁सेवाका": 8885,
      "▁मर": 8886,
      "▁झण्डा": 8887,
      "▁हङकङ": 8888,
      "दिभ": 8889,
      "▁जानकी": 8890,
      "समूह": 8891,
      "▁छौँ,": 8892,
      "▁पोर्चु": 8893,
      "नमार्फत": 8894,
      "▁‘सर": 8895,
      "▁बड": 8896,
      "▁(म": 8897,
      "▁लाभांश": 8898,
      "नियम": 8899,
      "▁मुआब्जा": 8900,
      "▁स्क्र": 8901,
      "▁कुनैपनि": 8902,
      "▁प्रतिवादी": 8903,
      "▁‘द": 8904,
      "▁दृढ": 8905,
      "▁नपाइने": 8906,
      "▁सचेतना": 8907,
      "चाहिँ": 8908,
      "▁सावधान": 8909,
      "▁विभागीय": 8910,
      "▁चाँडो": 8911,
      "▁एमालेबाट": 8912,
      "▁नृत्य": 8913,
      "▁ग¥यो": 8914,
      "र्सा": 8915,
      "न्मुख": 8916,
      "▁सालदेखि": 8917,
      "▁माओवादीको": 8918,
      "▁कृष्णबहादुर": 8919,
      "▁सरकार,": 8920,
      "▁पाउनुपर्ने": 8921,
      "ीत": 8922,
      "▁भारत,": 8923,
      "ञ्चोक": 8924,
      "▁जैविक": 8925,
      "–०१": 8926,
      "▁अर्याल": 8927,
      "ज्व": 8928,
      "▁गोप्य": 8929,
      "नस": 8930,
      "सिनाले": 8931,
      "कोप्टर": 8932,
      "▁उर्जा": 8933,
      "▁भूभागमा": 8934,
      "▁खानु": 8935,
      "▁ओमान": 8936,
      "▁महालेखा": 8937,
      "▁भक्तजन": 8938,
      "▁लिमिटेडले": 8939,
      "▁जम्क": 8940,
      "▁शहरी": 8941,
      "▁अनियमितता": 8942,
      "▁तेज": 8943,
      "▁निकाल्ने": 8944,
      "शैली": 8945,
      "▁महानगरपालिकाको": 8946,
      "ुरि": 8947,
      "चारु": 8948,
      "▁निर्णयमा": 8949,
      "▁धो": 8950,
      "न्थ्यो।": 8951,
      "▁ढङ्गले": 8952,
      "▁इजरायली": 8953,
      "▁रावल": 8954,
      "०,": 8955,
      "▁निराशा": 8956,
      "▁सदस्यलाई": 8957,
      "▁सौन्दर्य": 8958,
      "ौँ।": 8959,
      "▁रिजालले": 8960,
      "▁डिल्ली": 8961,
      "▁बलिङ": 8962,
      "▁विश्वविद्यालयको": 8963,
      "मन्त्रालय": 8964,
      "▁अर्काे": 8965,
      "▁इन्धन": 8966,
      "▁आफैँले": 8967,
      "▁सुनार": 8968,
      "▁वेद": 8969,
      "बाली": 8970,
      "ड्स": 8971,
      "▁प्रतिशतसम्म": 8972,
      "▁सर्वोच्चले": 8973,
      "▁नच": 8974,
      "▁हलमा": 8975,
      "ंले": 8976,
      "▁समाजवादी)": 8977,
      "▁बताउनुहुन्छ": 8978,
      "▁उम्मे": 8979,
      "▁सम्मको": 8980,
      "▁आचारसंहिता": 8981,
      "▁अन्तर्गतको": 8982,
      "▁योजनाको": 8983,
      "▁हिमपात": 8984,
      "▁नर्": 8985,
      "▁आइरहेका": 8986,
      "पर्धा": 8987,
      "▁रुचि": 8988,
      "▁बर्सेनि": 8989,
      "▁चैत्र": 8990,
      "▁बुझाउने": 8991,
      "▁उपप्रधान": 8992,
      "▁हुनेगरी": 8993,
      "▁राईको": 8994,
      "▁सञ्चालनको": 8995,
      "▁हमला": 8996,
      "पछ": 8997,
      "▁ट्रया": 8998,
      "▁क्रिकेटमा": 8999,
      "▁नहुनु": 9000,
      "न्टल": 9001,
      "सर्थ": 9002,
      "▁अनुसारको": 9003,
      "▁कानुनको": 9004,
      "▁अदालतबाट": 9005,
      "▁थुनामा": 9006,
      "तारमा": 9007,
      "बुद्ध": 9008,
      "▁खड्का,": 9009,
      "▁सबस्ट": 9010,
      "▁मर्यादा": 9011,
      "ब्य": 9012,
      "फाई": 9013,
      "▁हेलिकोप्टर": 9014,
      "–स": 9015,
      "▁पदम": 9016,
      "▁औचित": 9017,
      "्यौ": 9018,
      "फु": 9019,
      "ढुंगा": 9020,
      "▁अस्तित्व": 9021,
      "▁भागब": 9022,
      "▁कोषले": 9023,
      "▁वैशाखमा": 9024,
      "▁नगर्दा": 9025,
      "▁हरियो": 9026,
      "▁जिज्ञा": 9027,
      "▁घिसि": 9028,
      "▁टर्की": 9029,
      "▁निवासमा": 9030,
      "▁फोरम": 9031,
      "▁कपाल": 9032,
      "▁पशुपतिनाथ": 9033,
      "▁मकवानपुर": 9034,
      "▁उद": 9035,
      "घ्र": 9036,
      "▁एकदिवसीय": 9037,
      "ञ्जा": 9038,
      "▁शक्तिको": 9039,
      "भाषा": 9040,
      "▁डिएसपी": 9041,
      "▁लगेको": 9042,
      "▁आयल": 9043,
      "▁स्थलगत": 9044,
      "▁टीकापुर": 9045,
      "▁केसीको": 9046,
      "न्ध्र": 9047,
      "▁गएराति": 9048,
      "▁गहुँ": 9049,
      "स्,": 9050,
      "सनीय": 9051,
      "▁अनुशासन": 9052,
      "▁समाचारमा": 9053,
      "▁ठाउँबाट": 9054,
      "▁तत्व": 9055,
      "▁यससँगै": 9056,
      "▁स्याङ्जा": 9057,
      "त्मा": 9058,
      "लेश्वर": 9059,
      "▁द्विपक्षीय": 9060,
      "▁श्रृ": 9061,
      "▁बोलि": 9062,
      "▁भण्डारी,": 9063,
      "▁कार्यतालिका": 9064,
      "▁पारदर्शी": 9065,
      "▁तालिब": 9066,
      "▁छैन,’": 9067,
      "▁केटा": 9068,
      "▁नगर,": 9069,
      "योजित": 9070,
      "▁बजेर": 9071,
      "▁‘के": 9072,
      "▁जीत": 9073,
      "▁टुङ्गो": 9074,
      "▁मृ": 9075,
      "लट": 9076,
      "▁कार्यान्वयनको": 9077,
      "▁कृति": 9078,
      "▁कम्तिमा": 9079,
      "▁अस्पताल,": 9080,
      "मेट": 9081,
      "▁प्रक्षे": 9082,
      "▁नबो": 9083,
      "▁पुर्‍याएको": 9084,
      "▁घनश्याम": 9085,
      "टेको": 9086,
      "▁संस्थालाई": 9087,
      "▁दूतावासले": 9088,
      "▁पश्चिमा": 9089,
      "▁अनौपचारिक": 9090,
      "▁मूल्याङ्कन": 9091,
      "▁आस्था": 9092,
      "▁सुनचाँदी": 9093,
      "ंगु": 9094,
      "▁कृषि,": 9095,
      "▁सङ्क्रमितको": 9096,
      "▁दिलाउन": 9097,
      "डीको": 9098,
      ".न": 9099,
      "▁मझ": 9100,
      "▁शोक": 9101,
      "▁भण्डारण": 9102,
      "बेर": 9103,
      "▁व्रत": 9104,
      "▁नाग": 9105,
      "▁तिला": 9106,
      "▁हाे": 9107,
      "▁बन": 9108,
      "▁उप्रेती": 9109,
      "▁सकिए": 9110,
      "▁जोडिन": 9111,
      "▁घट्दै": 9112,
      "▁यादवको": 9113,
      "▁फेसबुकमा": 9114,
      "▁भेटेर": 9115,
      "▁दाहालको": 9116,
      "▁रिपोर्": 9117,
      "घाटमा": 9118,
      "यमान": 9119,
      "▁गान्ध": 9120,
      "▁सङ्घका": 9121,
      "▁फाल": 9122,
      "▁पहलमा": 9123,
      "▁लाम": 9124,
      "त्रि": 9125,
      "▁रेमिट्या": 9126,
      "▁उपकुलपति": 9127,
      "्ररी": 9128,
      "▁खेर": 9129,
      "ेक्ट": 9130,
      "▁बुझ्ने": 9131,
      "▁करिडोर": 9132,
      "ंशी": 9133,
      "▁उपचाररत": 9134,
      "▁संलग्नता": 9135,
      "▁ललितपुरमा": 9136,
      "▁राजनीतिका": 9137,
      "▁‘ग": 9138,
      "▁भेरिय": 9139,
      "▁जनआ": 9140,
      "▁निकाल": 9141,
      "मोड": 9142,
      "▁२०१४": 9143,
      "▁बाह्र": 9144,
      "▁अधिकारीलाई": 9145,
      "▁बिहीवार": 9146,
      "▁औचित्य": 9147,
      "▁अपमा": 9148,
      "▁तुला": 9149,
      "▁अक्ष": 9150,
      "▁फुटपाथ": 9151,
      "▁समन्वयमा": 9152,
      "दर्शन": 9153,
      "▁बालक": 9154,
      "▁विषयको": 9155,
      "▁गैँ": 9156,
      "▁रवीन्द्र": 9157,
      "▁अंग्रेजी": 9158,
      "▁आश्रम": 9159,
      "▁उम्मेदवारले": 9160,
      "▁जवान": 9161,
      "▁सदनमा": 9162,
      "▁परिमाण": 9163,
      "स्वरुप": 9164,
      "कासहित": 9165,
      "▁खानेकुरा": 9166,
      "ट्री": 9167,
      "भावी": 9168,
      "▁विद्रोह": 9169,
      "▁मिलाएर": 9170,
      "लू": 9171,
      "▁मर्": 9172,
      "▁डीएसपी": 9173,
      "▁सिङ्गो": 9174,
      "▁कांग्रेस,": 9175,
      "▁हौं": 9176,
      "छुट्": 9177,
      "▁भोलिपल्ट": 9178,
      "▁सदस्यका": 9179,
      "–७": 9180,
      "▁गई": 9181,
      "▁प्रेरणा": 9182,
      "▁जनार्दन": 9183,
      "▁पन्छ": 9184,
      "▁बौद्धिक": 9185,
      "▁मिल्नेछ": 9186,
      "रात": 9187,
      "▁सारेको": 9188,
      "लाय": 9189,
      "क्रान्ति": 9190,
      "▁बाँडफाँ": 9191,
      "▁गाडीको": 9192,
      "सोम": 9193,
      "▁दुईजना": 9194,
      "▁लगाउनु": 9195,
      "▁संस्थापन": 9196,
      "▁व्यवस्थापक": 9197,
      "▁नेपालमै": 9198,
      "▁भूगोल": 9199,
      "▁ब्रो": 9200,
      "▁‘मा": 9201,
      "षक": 9202,
      "▁राष्ट्रियसभाको": 9203,
      "▁सिद्ध": 9204,
      "▁भुटान": 9205,
      "▁मानवअधिकार": 9206,
      "▁उर्": 9207,
      "▁टावर": 9208,
      "▁इन्दि": 9209,
      "म्पा": 9210,
      "▁लम्ब": 9211,
      "किश": 9212,
      "▁फ्रि": 9213,
      "पले": 9214,
      "▁अन्तर्वा": 9215,
      "ख्": 9216,
      "िङ": 9217,
      "▁बोट": 9218,
      "▁नसके": 9219,
      "▁निकायलाई": 9220,
      "▁‘प्रचण्ड’ले": 9221,
      "▁जनचेत": 9222,
      "जाँच": 9223,
      "▁एसएसपी": 9224,
      "▁भैरहेको": 9225,
      "▁नसक्नु": 9226,
      "▁अभियानको": 9227,
      "▁महानगरको": 9228,
      "▁डढेलो": 9229,
      "▁जडीबुटी": 9230,
      "▁सिक्": 9231,
      "▁बनाउनका": 9232,
      "▁प्रतिष्ठा": 9233,
      "▁प्रक्षेपण": 9234,
      "▁शहीद": 9235,
      "▁हनु": 9236,
      "▁व्यवस्थाको": 9237,
      "▁चिह्न": 9238,
      "▁पुन:": 9239,
      "▁कञ्चनपुर": 9240,
      "▁तपाईंले": 9241,
      "▁चेल्": 9242,
      "डिट": 9243,
      "ंदा": 9244,
      "चानक": 9245,
      "▁क्षेत्रफलमा": 9246,
      "▁सदा": 9247,
      "▁जनवरी": 9248,
      "▁विश्वविद्यालयका": 9249,
      "▁लियो": 9250,
      "▁बनायो": 9251,
      "▁अन्तरले": 9252,
      "▁फौज": 9253,
      "▁संस्कृतिको": 9254,
      "▁गृहकार्य": 9255,
      "▁केसी,": 9256,
      "▁खोजिएको": 9257,
      "▁दाजुभाइ": 9258,
      "▁प्रसिद्ध": 9259,
      "▁मिथि": 9260,
      "▁कन्स": 9261,
      "▁३००": 9262,
      "▁चाबहिल,": 9263,
      "▁चिन": 9264,
      "▁बाला": 9265,
      "▁इन्डो": 9266,
      "▁कार्यसमि": 9267,
      "▁मध्या": 9268,
      "▁अम्ब": 9269,
      "▁ऐनको": 9270,
      "▁दुर्गम": 9271,
      "▁समक्ष": 9272,
      "▁बिस्तारै": 9273,
      ".ब": 9274,
      "▁इजरायल": 9275,
      "▁(को": 9276,
      "▁नेवि": 9277,
      "सायनिक": 9278,
      "▁ढुक्क": 9279,
      "▁प्रसाई": 9280,
      "▁मेलमिला": 9281,
      "क्वा": 9282,
      "▁डिसेम्बर": 9283,
      "▁प्रदेश,": 9284,
      "▁अंश": 9285,
      "▁गुठी": 9286,
      "▁नवलपरासी": 9287,
      "▁हुला": 9288,
      "▁पथ": 9289,
      "▁डेब": 9290,
      "▁तत्कालिन": 9291,
      "▁संरक्षणका": 9292,
      "▁बिक्र": 9293,
      "▁रहेकोमा": 9294,
      "▁गाँजा": 9295,
      "▁प्रशासन,": 9296,
      "▁शाखाका": 9297,
      "▁बेल्": 9298,
      "समी": 9299,
      "लिखेल": 9300,
      "▁गुमाउने": 9301,
      "▁त्यसैगरी,": 9302,
      "▁कार्यसम्पादन": 9303,
      "▁आजका": 9304,
      "▁कोहल": 9305,
      "▁उकालो": 9306,
      "ङ्ग्रेस": 9307,
      "▁एजेन्डा": 9308,
      "▁भ्रमणको": 9309,
      "▁थाल्": 9310,
      "▁केभी": 9311,
      "▁आवतजावत": 9312,
      "लकण्ठ": 9313,
      "डब्": 9314,
      "▁सूचीकृत": 9315,
      "▁आश्र": 9316,
      "▁सन्तु": 9317,
      "▁लडाइँ": 9318,
      "▁तसर्थ": 9319,
      "हिबार": 9320,
      "▁छात्रवृत्ति": 9321,
      "जेन्ट": 9322,
      "▁मीन": 9323,
      "सय": 9324,
      "▁झडप": 9325,
      "▁भ्रष्टाचार,": 9326,
      "▁सिधै": 9327,
      "▁अचानक": 9328,
      "५,": 9329,
      "▁चौधरीको": 9330,
      "सिरमा": 9331,
      "न्च": 9332,
      "▁प्यारा": 9333,
      "▁प्रमुखको": 9334,
      "शंकर": 9335,
[...]
